#version: 0.2
臓 t
臓 a
h e
i n
r e
o n
臓t he
e r
臓 s
a t
臓 w
臓 o
e n
臓 c
i t
i s
a n
o r
e s
臓 b
e d
臓 f
in g
臓 p
o u
臓a n
a l
a r
臓t o
臓 m
臓o f
臓 in
臓 d
臓 h
臓an d
i c
a s
l e
臓t h
i on
o m
l l
en t
臓 n
臓 l
s t
臓 re
v e
臓 e
r o
l y
臓b e
臓 g
臓 T
c t
臓 S
i d
o t
臓 I
u t
e t
臓 A
臓 is
臓 on
i m
a m
o w
a y
a d
s e
臓th at
臓 C
i g
臓f or
a c
臓 y
v er
u r
臓 u
l d
臓s t
臓 M
' s
臓 he
臓 it
at ion
it h
i r
c e
臓y ou
i l
臓 B
臓w h
o l
臓 P
臓w ith
臓 1
t er
c h
臓a s
臓w e
臓 (
n d
i ll
臓 D
i f
臓 2
a g
er s
k e
臓 "
臓 H
e m
臓c on
臓 W
臓 R
he r
臓w as
臓 r
o d
臓 F
u l
at e
臓a t
r i
p p
o re
臓T he
臓s e
u s
臓p ro
臓h a
u m
臓a re
臓d e
a in
an d
臓o r
ig h
es t
is t
a b
r om
臓 N
t h
臓c om
臓 G
u n
o p
0 0
臓 L
臓n ot
es s
臓e x
臓 v
re s
臓 E
e w
it y
an t
臓b y
e l
o s
or t
o c
q u
臓f rom
臓ha ve
臓s u
i ve
ou ld
臓s h
臓th is
n t
r a
p e
igh t
ar t
m ent
臓a l
u st
en d
- -
al l
臓 O
ac k
臓c h
臓 le
i es
re d
ar d
芒 蘑
ou t
臓 J
臓a b
e ar
i v
al ly
ou r
o st
g h
p t
臓p l
as t
臓c an
a k
om e
u d
T he
臓h is
臓d o
臓g o
臓h as
g e
' t
臓 U
r ou
臓s a
臓 j
臓b ut
臓w or
臓a ll
e ct
臓 k
am e
臓w ill
o k
臓w he
臓the y
id e
0 1
f f
ic h
p l
t her
臓t r
. .
臓in t
i e
u re
ag e
臓n e
i al
a p
in e
ic e
臓m e
臓o ut
an s
on e
on g
ion s
臓wh o
臓 K
臓u p
臓the ir
臓a d
臓 3
臓u s
at ed
ou s
臓m ore
u e
o g
臓S t
in d
i ke
臓s o
im e
p er
. "
b er
i z
a ct
臓on e
臓sa id
臓 -
a re
臓you r
c c
臓T h
臓c l
e p
a ke
ab le
i p
臓con t
臓wh ich
i a
臓 im
臓ab out
臓we re
ver y
u b
臓h ad
臓 en
臓com p
, "
臓I n
臓u n
臓a g
i re
ac e
a u
ar y
臓w ould
as s
r y
臓 芒蘑
c l
o ok
e re
s o
臓 V
ig n
i b
臓of f
臓t e
v en
臓 Y
i le
o se
it e
or m
臓2 01
臓re s
臓m an
臓p er
臓o ther
or d
ul t
臓be en
臓l ike
as e
an ce
k s
ay s
ow n
en ce
臓d is
ct ion
臓an y
臓a pp
臓s p
in t
res s
ation s
a il
臓 4
ic al
臓the m
臓he r
ou nt
臓C h
臓a r
臓 if
臓the re
臓p e
臓y ear
a v
臓m y
臓s ome
臓whe n
ou gh
ac h
臓th an
r u
on d
ic k
臓o ver
ve l
臓 qu
膴 膴
臓s c
re at
re e
臓I t
ou nd
p ort
臓al so
臓p art
f ter
臓k n
臓be c
臓t ime
en s
臓 5
op le
臓wh at
臓n o
d u
m er
an g
臓n ew
-- --
臓g et
or y
it ion
ing s
臓j ust
臓int o
臓 0
ent s
o ve
t e
臓pe ople
臓p re
臓it s
臓re c
臓t w
i an
ir st
ar k
or s
臓wor k
ad e
o b
臓s he
臓o ur
w n
in k
l ic
臓1 9
臓H e
is h
nd er
au se
臓h im
on s
臓 [
臓 ro
f orm
i ld
at es
ver s
臓on ly
o ll
臓s pe
c k
e ll
am p
臓a cc
臓b l
i ous
ur n
f t
o od
臓h ow
he d
臓 '
臓a fter
a w
臓at t
o v
n e
臓pl ay
er v
ic t
臓c ould
it t
臓a m
臓f irst
臓 6
臓a ct
臓 $
e c
h ing
u al
u ll
臓com m
o y
o ld
c es
at er
臓f e
臓be t
w e
if f
臓tw o
oc k
臓b ack
) .
id ent
臓u nder
rou gh
se l
x t
臓m ay
rou nd
臓p o
p h
is s
臓d es
臓m ost
臓d id
臓ad d
j ect
臓in c
f ore
臓p ol
on t
臓ag ain
cl ud
ter n
臓kn ow
臓ne ed
臓con s
臓c o
臓 .
臓w ant
臓se e
臓 7
n ing
i ew
臓Th is
c ed
臓e ven
臓in d
t y
臓W e
at h
臓the se
臓p r
臓u se
臓bec ause
臓f l
n g
臓n ow
臓芒蘑 牡
c om
is e
臓m ake
臓the n
ow er
臓e very
臓U n
臓se c
os s
u ch
臓e m
臓 =
臓R e
i ed
r it
臓in v
le ct
臓su pp
at ing
臓l ook
m an
pe ct
臓 8
ro w
臓b u
臓whe re
if ic
臓year s
i ly
臓d iff
臓sh ould
臓re m
T h
I n
臓e v
d ay
' re
ri b
臓re l
s s
臓de f
臓r ight
臓s y
) ,
l es
00 0
he n
臓th rough
臓T r
_ _
臓w ay
臓d on
臓 ,
臓1 0
as ed
臓as s
ub lic
臓re g
臓A nd
i x
臓 very
臓in clud
ot her
臓im p
ot h
臓su b
臓芒蘑 亩
臓be ing
ar g
臓W h
= =
ib le
臓do es
an ge
r am
臓 9
er t
p s
it ed
ation al
臓b r
臓d own
臓man y
ak ing
臓c all
ur ing
it ies
臓p h
ic s
al s
臓de c
at ive
en er
臓be fore
il ity
臓we ll
臓m uch
ers on
臓th ose
臓su ch
臓 ke
臓 end
臓B ut
as on
t ing
臓l ong
e f
臓th ink
y s
臓be l
臓s m
it s
a x
臓o wn
臓pro v
臓s et
if e
ment s
b le
w ard
臓sh ow
臓p res
m s
om et
臓o b
臓s ay
臓S h
t s
f ul
臓e ff
臓g u
臓in st
u nd
re n
c ess
臓 ent
臓Y ou
臓go od
臓st art
in ce
臓m ade
t t
st em
ol og
u p
臓 |
um p
臓he l
ver n
ul ar
u ally
臓a c
臓m on
臓l ast
臓2 00
1 0
臓st ud
u res
臓A r
sel f
ar s
mer ic
u es
c y
臓m in
oll ow
臓c ol
i o
臓m od
臓c ount
臓C om
he s
臓f in
a ir
i er
芒蘑 亩
re ad
an k
at ch
e ver
臓st r
臓po int
or k
臓N ew
臓s ur
o ol
al k
em ent
臓us ed
ra ct
we en
臓s ame
ou n
臓A l
c i
臓diff ere
臓wh ile
---- ----
臓g ame
ce pt
臓s im
.. .
臓in ter
e k
臓re port
臓pro du
臓st ill
l ed
a h
臓he re
臓wor ld
臓th ough
臓n um
ar ch
im es
al e
臓S e
臓I f
/ /
臓L e
臓re t
臓re f
臓tr ans
n er
ut ion
ter s
臓t ake
臓C l
臓con f
w ay
a ve
臓go ing
臓s l
u g
臓A meric
臓spe c
臓h and
臓bet ween
ist s
臓D e
o ot
I t
臓e ar
臓again st
臓h igh
g an
a z
at her
臓ex p
臓o p
臓in s
臓g r
臓hel p
臓re qu
et s
in s
臓P ro
is m
臓f ound
l and
at a
us s
am es
臓p erson
臓g reat
p r
臓s ign
臓A n
' ve
臓s omet
臓s er
h ip
臓r un
臓 :
臓t er
ire ct
臓f ollow
臓d et
ic es
臓f ind
1 2
臓m em
臓c r
e red
e x
臓ex t
ut h
en se
c o
臓te am
v ing
ou se
as h
at t
v ed
臓sy stem
臓A s
d er
iv es
m in
臓le ad
臓B l
c ent
臓a round
臓go vern
臓c ur
vel op
an y
臓c our
al th
ag es
iz e
臓c ar
od e
臓l aw
臓re ad
' m
c on
臓re al
臓supp ort
臓1 2
.. ..
臓re ally
n ess
臓f act
臓d ay
臓b oth
y ing
臓s erv
臓F or
臓th ree
臓w om
臓m ed
od y
臓The y
5 0
臓ex per
t on
臓e ach
ak es
臓c he
臓c re
in es
臓re p
1 9
g g
ill ion
臓g rou
ut e
i k
W e
g et
E R
臓m et
臓s ays
o x
臓d uring
er n
iz ed
a red
臓f am
ic ally
臓ha pp
臓I s
臓ch ar
m ed
v ent
臓g ener
i ent
p le
i et
re nt
1 1
v es
pt ion
臓2 0
form ation
臓c or
臓off ic
ie ld
臓to o
is ion
臓in f
臓 Z
t he
o ad
臓p ublic
臓pro g
r ic
* *
臓w ar
臓p ower
v iew
臓f ew
臓l oc
臓differe nt
臓st ate
臓he ad
' ll
臓p oss
臓st at
re t
ant s
臓v al
臓is s
臓c le
i vers
an c
臓ex pl
臓an other
臓 Q
臓a v
th ing
n ce
W h
臓ch ild
臓s ince
i red
l ess
臓l ife
臓de velop
itt le
臓de p
臓p ass
茫 磨
臓t urn
or n
Th is
b ers
ro ss
臓A d
臓f r
臓res p
臓sec ond
o h
臓 /
臓dis c
臓 &
臓somet hing
臓comp le
臓 ed
臓f il
臓mon th
a j
u c
臓govern ment
臓with out
臓le g
臓d ist
臓p ut
臓qu est
an n
臓pro t
2 0
臓ne ver
i ence
臓le vel
臓ar t
臓th ings
臓m ight
臓eff ect
臓cont ro
臓c ent
臓1 8
臓all ow
臓bel ie
ch ool
ot t
臓inc re
臓fe el
臓res ult
臓l ot
臓f un
ot e
臓t y
ere st
臓cont in
臓us ing
臓b ig
2 01
臓as k
臓b est
臓 )
I N
臓o pp
3 0
臓num ber
in ess
S t
le ase
臓c a
臓m ust
臓d irect
臓g l
臓 <
臓op en
臓p ost
臓com e
臓se em
ord ing
臓we ek
ate ly
it al
臓e l
ri end
臓f ar
臓t ra
in al
臓p ri
臓U S
臓pl ace
臓for m
臓to ld
" :
ain s
at ure
臓Tr ump
臓st and
臓 #
id er
臓F r
臓ne xt
臓s oc
臓p ur
臓le t
臓l ittle
臓h um
臓 i
r on
1 5
臓1 5
臓comm un
臓m ark
臓The re
臓w r
臓Th at
臓in formation
w ays
臓b us
a pp
臓inv est
m e
臓h ard
ain ed
e ad
臓im port
臓app ro
臓t est
臓t ri
臓re st
os ed
臓f ull
臓c are
臓S p
臓c ase
O N
臓s k
臓l ess
臓 +
臓part ic
臓P l
ab ly
u ck
is hed
ch n
b e
臓l ist
at or
臓to p
臓ad v
臓B e
ru ct
臓d em
r ation
l ing
g y
re en
g er
臓h ome
臓le ft
臓bet ter
臓d ata
臓1 1
臓att ack
臓pro ble
l ine
ard s
臓be h
r al
臓H ow
臓S he
ar ge
臓 --
: //
臓b ro
臓P h
at s
臓bu ild
w w
id ed
a im
as es
en cy
臓m ain
in ed
臓includ ing
臓 {
臓g ot
臓int erest
臓ke ep
臓 X
臓e as
ain ing
臓cl ass
芒蘑 娄
臓N o
臓v ar
臓sm all
amp le
A T
臓 ide
臓S o
臓re ce
臓pol it
臓m ov
臓pl an
臓per cent
iv ing
臓c amp
臓p ay
1 4
s c
is ed
臓u nt
one y
pl oy
== ==
臓did n
臓I nd
el s
ert ain
臓p os
__ __
i ver
臓pro cess
臓prog ram
if ied
臓R ep
1 6
u ro
olog y
at ter
in a
臓n ame
臓A ll
臓f our
臓ret urn
v ious
b s
臓call ed
臓m ove
臓S c
ir d
臓grou p
臓b re
臓m en
臓c ap
t en
e e
臓d ri
le g
he re
uth or
臓p at
臓cur rent
id es
臓p op
t o
ent ion
臓al ways
臓m il
臓wom en
臓1 6
臓o ld
iv en
ra ph
臓O r
r or
ent ly
臓n ear
臓E x
re am
s h
臓1 4
臓f ree
iss ion
st and
臓C on
al ity
us ed
1 3
臓des ign
臓ch ange
臓ch ang
臓b o
臓v is
em ber
臓b ook
read y
臓k ill
2 5
pp ed
臓a way
臓ab le
臓count ry
臓con st
ar n
臓or der
A R
i or
i um
or th
1 8
ail able
臓s w
臓m illion
臓1 3
at ic
t ed
臓G o
臓o per
en g
臓th ing
aj or
con om
臓Com m
臓wh y
u red
ur al
臓s chool
b y
臓M ar
臓a ff
臓d ays
臓an n
us h
an e
I f
e g
臓pro f
臓he alth
ou th
B ut
ion al
. ,
臓s ol
臓al ready
臓3 0
臓char act
H e
臓f riend
E S
i ans
ic le
' d
臓O n
臓le ast
臓p rom
臓d r
臓h ist
it her
臓 est
i qu
1 7
s on
臓te ll
臓t alk
oh n
o int
le ction
A N
臓unt il
au gh
臓l ater
臓 ve
臓v iew
end ing
iv ed
臓wor d
w are
臓c ost
臓en ough
臓g ive
臓Un ited
臓te chn
are nt
O R
臓p ar
臓D r
臓201 6
r ist
er ing
臓 脗
臓l arge
s ide
ac y
cc ess
臓w in
臓import ant
臓19 9
臓does n
臓1 7
臓bus iness
臓cle ar
臓re se
" ,
ur y
臓e qu
as ter
al f
臓Americ an
n ect
臓ex pect
ivers ity
臓o cc
臓F l
臓k ind
臓me an
臓p ast
臓de v
臓b as
le t
ra ft
臓or gan
臓de l
臓per form
臓st ory
臓se ason
臓C ol
臓cl aim
臓c ame
臓with in
臓l ine
臓pro ject
臓A t
臓contro l
end ed
臓S y
臓a ir
iz ation
臓 *
le y
臓m oney
id d
Y ou
f or
臓fam ily
臓m aking
臓b it
臓pol ice
臓happ en
臓 vers
on y
u ff
臓W hen
臓s it
ide o
l f
is on
臓su re
g in
臓app ear
臓l ight
臓 es
o f
臓w ater
臓t imes
n ot
臓g row
臓comp any
臓T e
ow s
臓m ar
our ce
i ol
ar m
b r
臓ex ample
臓con c
臓f ore
臓T o
p ro
E N
ri es
臓2 5
臓C an
ne y
臓act ually
臓e ver
ur ity
ak en
ap s
臓t ax
臓m ajor
am a
臓of ten
er al
臓hum an
臓j ob
is ter
臓av ailable
oc r
en n
a id
iv id
臓rec ord
? "
臓s ing
臓A m
id ence
臓new s
st er
臓e conom
臓follow ing
臓B r
is ing
臓h our
m ost
um ent
臓se x
臓des c
臓bec ome
臓E d
臓to ok
臓ha ving
臓produ ct
a ult
A s
ar ing
臓me ans
臓h op
un e
臓ch o
臓c ertain
臓n on
臓de al
2 4
le ment
oc i
en e
臓s ide
臓P r
臓M ay
臓re ason
u ed
c hed
ul ation
臓e lect
臓offic ial
臓poss ible
臓h old
and s
ot s
臓c ity
or ies
臓se ver
臓child ren
臓on ce
臓act iv
l er
臓n ight
it ions
臓J ohn
a pe
pl ay
臓d one
臓l im
臓work ing
臓P res
or ld
e b
臓C o
臓b ody
ail s
ut es
臓M r
臓whe ther
臓a uthor
ro p
臓pro per
臓se en
) ;
臓f ac
臓S u
臓con d
it ing
臓cour se
臓 }
-------- --------
a ign
臓ev ent
臓en g
臓p ot
臓in tern
i am
臓sh ort
em pt
茫 膜
臓G od
il ar
8 0
臓or ig
I S
our n
ab ility
it ive
臓d am
臓1 00
臓p ress
臓do ing
臓prot ect
r ing
臓though t
臓quest ion
re w
臓W ar
臓sever al
臓St ate
臓g iven
臓f und
臓T w
臓w ent
an ces
w ork
p or
m y
4 0
臓ar g
art ment
ust om
臓pol ic
臓me et
臓c reat
2 2
臓St ates
臓g ames
ra w
ut ure
臓under stand
ur s
臓O b
l ish
s y
臓m akes
臓w on
ag on
臓h tt
臓l ove
ent ial
臓comple te
p ar
臓I m
A L
臓acc ount
脗 艂
ore d
ver t
臓 ident
臓201 5
臓other s
臓M in
i ber
ver age
The re
ition al
d d
臓pro b
臓you ng
臓al ong
臓acc ording
臓y et
臓mem bers
臓Wh at
o id
臓M an
A nd
臓am ong
a i
臓em ploy
臓R es
臓 >
臓inv ol
臓l ow
a f
臓C ar
臓h ig
臓O ne
臓S ec
in ation
臓like ly
臓an t
ag ed
臓R uss
臓b en
臓re le
F or
b ack
臓N ot
臓pres ident
b all
臓acc ess
ivid ual
臓D em
臓E uro
6 0
臓kn own
ir l
臓G r
臓ear ly
u se
iet y
芒蘑 牡
臓f ight
臓s ent
臓to day
臓mark et
" .
臓b ased
臓str ong
ur ther
臓de b
m ber
臓proble m
臓de ath
臓soc ial
im ate
A S
ort un
臓camp aign
er y
C h
臓e y
i ally
臓m us
w h
p os
臓 er
臓sa f
臓month s
ir on
臓v iol
臓f ive
臓st re
臓play ers
in c
al d
y ear
a un
臓su ccess
臓pres ent
ere nce
臓201 4
臓su gg
臓partic ular
臓tr y
臓sugg est
臓Ch rist
on es
臓pri v
2 3
臓c rit
臓l and
臓loc al
if y
2 9
臓a ut
E D
臓G u
臓m ult
臓polit ical
臓ask ed
臓for mer
it ter
ri pt
臓cl ose
臓p ract
臓Y ork
臓get ting
臓ac ross
臓com b
臓belie ve
臓 z
臓to get
臓toget her
臓C ent
ir c
臓ind ividual
臓M c
2 7
is k
臓E ng
臓f ace
臓2 4
臓val ue
臓are a
e v
臓w rit
臓Pres ident
臓v ot
臓ke y
臓m om
p ut
臓any thing
臓exper ience
att le
臓m ind
a ff
om m
臓f uture
g ed
臓c ut
臓to t
it ch
臓v ideo
臓invest ig
臓n et
臓M y
r ict
i en
. )
臓imp ro
th ough
ward s
臓con nect
臓M ed
sel ves
ens ive
m b
o ber
at ors
A n
臓5 0
臓re du
res ent
臓ab ove
臓f re
臓Euro pe
s w
臓am ount
臓A pp
臓e ither
臓mil it
臓an al
臓f ail
臓E n
al es
臓spec ial
臓bl ack
I T
c her
臓look ing
臓f ire
y n
臓al most
o on
臓stud y
臓m iss
c hes
ro wn
臓t re
臓commun ity
臓med ia
臓f ood
臓com es
臓Un iversity
臓sing le
Wh at
u ly
臓h alf
ag ue
h od
臓Rep ublic
臓start ed
臓qu ick
ot o
b ook
臓iss ue
it or
臓el se
臓cons ider
2 6
ro du
臓t aken
2 8
9 9
臓W ith
臓tr ue
臓w a
臓tr ad
臓ag o
臓m ess
ie f
臓add ed
o ke
臓b ad
臓f av
3 3
臓sim ilar
as k
臓D on
臓charact er
ort s
臓H ouse
臓report ed
臓ty pe
v al
i od
臓How ever
臓t arg
臓ent ire
pp ing
臓hist ory
臓l ive
ff ic
.... ....
ed eral
臓tr ying
臓disc uss
臓H ar
ac es
l ished
臓se lf
os p
re st
臓ro om
el t
臓f all
ol ution
臓e t
臓 x
臓is n
臓ide a
b o
臓s ound
臓D ep
臓some one
ci ally
ull y
臓f oc
臓ob ject
if t
ap er
臓play er
臓r ather
臓serv ice
as hing
臓D o
臓P art
ru g
m on
p ly
臓m or
臓not hing
臓prov ide
I C
un g
臓part y
臓ex ist
臓m ag
7 0
臓r ul
臓h ouse
臓beh ind
臓how ever
臓W orld
臓s um
臓app lic
臓 ;
臓fun ction
g r
臓P ol
臓fr ont
2 00
臓ser ies
臓t em
臓ty p
ill s
臓o pt
臓point s
臓bel ow
itt ed
臓spec ific
臓201 7
um b
臓r a
臓pre vious
臓pre t
re me
臓c ustom
臓cour t
臓M e
臓re pl
臓who le
g o
c er
臓t reat
臓A ct
臓prob ably
臓le arn
end er
臓A ss
臓vers ion
n ow
臓che ck
臓C al
R E
min ist
O n
our ces
臓ben ef
臓d oc
臓det er
臓en c
臓su per
臓add ress
臓v ict
臓201 3
臓me as
t r
臓f ield
W hen
臓sign ific
u ge
臓fe at
臓comm on
l oad
臓be gin
臓br ing
臓a ction
er man
臓desc rib
臓ind ust
臓want ed
ri ed
m ing
臓att empt
4 5
f er
臓d ue
ress ion
# #
臓sh all
臓s ix
o o
臓st ep
臓p ub
臓him self
臓2 3
臓c op
臓d est
臓st op
A C
ib ility
臓l ab
ic ult
臓hour s
臓cre ate
臓f urther
臓Americ a
臓C ity
臓d ou
he ad
S T
臓N orth
c ing
臓n ational
u le
臓In st
臓t aking
臓Q u
ir t
臓re d
臓rese arch
v iron
臓G e
臓bre ak
an a
臓sp ace
ater ial
臓rec ent
臓A b
臓gener al
臓h it
臓per iod
臓every thing
ive ly
臓ph ys
臓say ing
an ks
臓c ou
臓c ult
ac ed
e al
u ation
臓c oun
l u
臓includ e
臓pos ition
臓A fter
臓Can ad
臓E m
臓im m
臓R ed
臓p ick
臓com pl
臓m atter
re g
e xt
ang u
is c
o le
a ut
臓comp et
e ed
f ect
臓2 1
臓S en
臓The se
as ing
臓can not
臓in it
臓rel ations
ac hed
臓b ar
臓4 0
臓T H
臓201 2
臓v ol
臓g round
臓sec urity
臓up d
il t
3 5
臓conc ern
臓J ust
臓wh ite
臓seem s
臓H er
pe cially
i ents
臓ann oun
臓f ig
ight s
臓st ri
l ike
id s
臓s us
臓w atch
臓 芒
臓w ind
臓C ont
臓it self
臓m ass
A l
y le
iqu e
臓N ational
臓ab s
臓p ack
臓out side
臓an im
臓p ain
et er
臓man ag
du ct
og n
臓 ]
臓Se pt
se c
o ff
臓J an
臓f oot
ad es
臓th ird
臓m ot
臓ev idence
int on
臓th reat
a pt
pl es
c le
臓l o
臓de cl
臓it em
med i
臓rep resent
om b
am er
臓signific ant
og raph
s u
臓c al
i res
00 00
I D
A M
臓sim ply
臓long er
臓f ile
O T
c he
S o
ate g
or g
臓H is
臓en er
臓d om
臓up on
il i
": "
臓them selves
臓com ing
臓qu ite
臓diff icult
臓B ar
il ities
re l
end s
c ial
6 4
臓wom an
ra p
y r
臓ne cess
ip s
臓te xt
臓requ ire
臓milit ary
臓re view
臓resp ons
7 5
臓sub ject
臓inst ead
臓iss ues
臓g en
" ,"
臓min utes
臓we ap
r ay
am ed
t ime
b l
H ow
臓c ode
臓S m
臓hig her
臓St e
r is
臓p age
臓stud ents
臓In tern
臓met hod
臓A ug
臓P er
臓A g
臓polic y
臓S w
臓ex ec
臓ac cept
um e
rib ut
臓word s
臓fin al
臓chang es
臓Dem ocr
臓friend s
臓res pect
臓e p
臓comp an
iv il
臓dam age
** **
og le
viron ment
臓ne g
ent al
臓a p
臓tot al
iv al
! "
l im
臓need s
臓ag re
臓develop ment
臓a ge
ip le
2 1
臓result s
臓A f
S h
臓g un
臓Ob ama
ro ll
臓 @
臓right s
臓B rit
臓run ning
臓was n
臓p ort
臓r ate
臓pret ty
臓targ et
臓sa w
臓c irc
臓wor ks
ic ro
al t
o ver
ww w
Th at
l ier
臓every one
ud e
臓p ie
idd le
ra el
臓r ad
臓bl ock
臓w alk
T o
茫 模
n es
臓A ust
a ul
ro te
臓S outh
ess ion
op h
臓show s
臓s ite
臓j o
臓r isk
cl us
l t
臓in j
id ing
臓S pe
臓ch all
ir m
臓2 2
itt ing
st r
臓h y
L E
ke y
臓be gan
at ur
ashing ton
l am
臓D av
b it
臓s ize
臓P ar
3 8
ourn al
f ace
臓dec ision
臓l arg
臓j ud
re ct
臓contin ue
臓O ct
ove red
臓I nt
==== ====
臓p arent
臓W ill
臓eas y
臓d rug
ang er
臓s ense
臓d i
id ay
臓ener gy
ist ic
臓ass oci
ar ter
ob al
e ks
臓E l
ur ch
臓g irl
o e
it le
臓2 8
臓C he
臓requ est
臓so on
臓h ost
k y
臓st ates
om es
臓m aterial
le x
臓mom ent
臓an sw
on se
臓es pecially
臓n orm
臓serv ices
p ite
r an
臓ro le
4 4
) :
臓c red
C l
____ ____
臓m at
臓l og
臓Cl inton
O U
臓off ice
臓2 6
臓ch arg
臓tr ack
m a
臓he art
臓b all
臓person al
臓build ing
n a
s et
b ody
臓Bl ack
臓incre ase
itt en
臓need ed
3 6
3 2
= "
臓l ost
臓bec ame
臓grou ps
臓M us
臓w rote
臓P e
臓pro p
j oy
脙 漏
臓Wh ite
臓de ad
. '
臓htt p
臓we bs
O S
臓ins ide
臓wr ong
臓stat ement
臓 ...
y l
臓fil m
臓mus ic
臓sh are
ific ation
臓re lease
臓for ward
臓st ay
臓comp ut
it te
s er
臓orig inal
臓c ard
臓c and
臓d iv
at ural
臓fav or
O M
臓c ases
us es
臓se ction
臓le ave
g ing
ov ed
臓W ashington
3 9
臓G l
臓requ ired
act ion
ap an
o or
it er
臓K ing
臓count ries
臓G erman
ll ing
臓2 7
3 4
臓quest ions
臓pr im
臓c ell
臓sh oot
臓any one
臓W est
臓aff ect
ep end
臓on line
臓Is rael
臓Sept ember
臓ab ility
臓cont ent
is es
臓re ve
臓l aun
臓ind ic
臓for ce
c ast
臓so ld
av ing
f l
臓so ft
臓compan ies
ce ed
臓art icle
臓a ud
臓re v
臓ed uc
臓play ing
0 5
臓he ld
ct or
臓rele ased
臓f ederal
3 7
臓ad minist
臓inter view
臓inst all
臓rece ived
臓s ource
u k
P h
臓ser ious
臓cre ated
臓c ause
臓im medi
臓def in
u el
臓Dep artment
ct ions
臓C our
臓N ow
z e
it es
it ution
臓l ate
臓spe ak
n ers
臓leg al
ar i
臓C or
臓we eks
臓mod el
臓p red
臓ex act
B C
臓B y
IN G
os ing
臓t akes
臓reg ard
臓opp ortun
臓pr ice
臓19 8
臓A pr
f ully
臓or d
臓proble ms
ru ction
h am
臓C ount
le ge
臓lead ers
E T
le v
臓de ep
olog ical
es e
h aps
臓S ome
臓p ers
臓cont ract
臓relations hip
s p
ou d
臓b ase
4 8
m it
A d
anc ial
臓cons um
臓pot ential
臓l angu
re m
et h
臓rel ig
ress ed
6 6
臓l ink
臓l ower
ay er
臓J une
臓f em
un t
er c
ur d
臓cont act
臓 ill
臓m other
臓est ab
h tt
臓M arch
臓B ro
臓Ch ina
臓2 9
臓s qu
臓prov ided
臓a verage
as ons
臓201 1
臓ex am
l in
5 5
n ed
臓per fect
臓t ou
al se
u x
臓bu y
臓sh ot
臓col lect
臓ph ot
臓play ed
臓sur pr
臓official s
臓sim ple
av y
臓indust ry
臓hand s
g round
臓p ull
臓r ound
臓us er
臓r ange
u ary
臓priv ate
op s
e es
臓w ays
臓M ich
臓ve h
臓ex cept
臓ter ms
im um
pp er
I ON
ore s
臓Dr agon
ou l
臓d en
臓perform ance
臓b ill
c il
4 7
臓en vironment
臓ex c
ad d
臓wor th
臓p ict
臓ch ance
臓201 8
b or
臓spe ed
ict ion
臓al leg
臓J apan
at ory
re et
臓m atch
臓I I
臓st ru
ord er
臓st e
臓l iving
臓st ruct
in o
臓se par
her n
臓resp onse
臓en joy
臓v ia
A D
um ents
ace book
臓mem ber
ib r
iz ing
臓to ol
臓M on
臓Wh ile
h ood
臓A ng
臓D ef
臓off er
T r
a ur
臓turn ed
臓J uly
d own
an ced
臓rec ently
臓E ar
臓c e
臓St ar
臓C ong
rough t
臓bl ood
臓hop e
臓com ment
ain t
臓ar ri
il es
臓partic ip
ough t
ri ption
0 8
4 9
臓g ave
臓se lect
臓kill ed
sy ch
臓go es
i j
臓c oll
臓imp act
at ives
臓S er
0 9
臓Aug ust
臓b oy
d e
臓D es
臓f elt
U S
臓expect ed
臓im age
臓M ark
cc ording
o ice
E C
臓M ag
en ed
h old
臓P ost
臓pre vent
N o
臓invol ved
臓ey es
臓quick ly
A t
un k
臓beh av
臓 ur
臓l ed
c ome
e y
臓cand id
臓ear lier
臓foc us
et y
P ro
led ge
ix ed
ill ed
臓pop ular
A P
臓set t
l ight
臓var ious
in ks
臓level s
臓ro ad
ell ig
ab les
he l
itte e
臓G ener
y pe
臓he ard
ic les
臓m is
臓us ers
臓S an
臓impro ve
臓f ather
臓se arch
The y
v il
臓prof ess
臓kn ew
臓l oss
臓ev ents
6 5
臓b illion
0 7
0 2
臓New s
臓A M
臓co ver
w here
ens ion
臓b ott
臓are as
en ces
op e
臓Tw itter
a el
臓get s
臓Go ogle
臓s n
i ant
臓v ote
臓near ly
臓includ ed
臓rec ogn
z z
m m
al ed
臓happen ed
0 4
臓h ot
臓who se
臓c ivil
臓su ff
o es
it iz
臓Sy ri
臓resp ond
臓h on
臓feat ures
臓econom ic
臓Apr il
r im
臓techn ology
臓o ption
ag ing
臓pur ch
R e
臓l at
ch ie
is l
臓rec omm
u f
臓tr aining
臓effect s
臓f ast
臓201 0
臓occ ur
臓webs ite
臓em ail
臓s ens
e ch
臓o il
臓inf lu
臓current ly
臓S ch
臓Ad d
臓go al
臓sc ient
臓con v
1 00
em y
臓dec ided
臓tra vel
臓m ention
L L
0 3
臓e lection
臓ph one
臓look s
臓sit uation
臓c y
臓h or
b ed
臓Cour t
a ily
av es
臓qu ality
臓Com p
w ise
臓t able
臓st aff
臓W ind
et t
臓tri ed
ide red
臓add ition
臓b ox
臓l ack
ar ily
臓w ide
臓m id
臓bo ard
ys is
臓ant i
h a
臓d ig
en ing
臓d ro
C on
6 8
臓sl ow
b ased
se qu
臓p ath
E x
ak er
臓work ed
臓p en
臓eng ine
臓look ed
臓Su per
臓S erv
臓vict im
U n
臓proper ty
臓int rodu
臓exec ut
臓P M
L e
臓col or
臓M ore
臓6 0
臓net work
臓d ate
c ul
id ge
臓ext ra
3 1
臓s le
6 7
臓w ond
臓report s
j ust
臓Aust ral
臓cap ital
臓en s
臓comm and
臓allow ed
臓pre p
臓ca pt
h ib
臓num bers
ch an
臓f air
m p
om s
臓re ach
W ith
t ain
臓bro ad
臓cou ple
ec ause
ly ing
臓F eb
臓sc reen
臓l ives
臓pri or
臓Cong ress
A r
臓appro ach
臓e mer
ar ies
臓D is
s erv
臓N e
臓bu ilt
c ies
臓re pe
臓rul es
for ce
臓P al
臓fin ancial
臓cons idered
臓Ch ar
n ces
臓I S
臓b rought
臓b i
i ers
臓S im
O P
臓product s
臓vis it
臓doc ument
臓con duct
臓complete ly
in ing
臓Cal if
ib ly
臓wr itten
臓T V
em ents
臓d raw
O ne
臓pub lished
臓sec ret
r ain
he t
臓F acebook
ond ay
臓U p
臓sex ual
臓th ous
臓P at
臓 ess
臓stand ard
臓ar m
g es
ect ion
臓f ell
臓fore ign
an i
臓Fr iday
臓reg ular
in ary
臓incre ased
臓us ually
臓dem on
臓d ark
臓add itional
ro l
臓O f
臓produ ction
! !
und red
臓intern ational
id ents
臓F ree
rou p
臓r ace
臓m ach
臓h uge
A ll
le ar
ove mber
臓to wn
臓att ention
臓O ff
y ond
臓The n
f ield
臓ter ror
ra z
臓B o
臓meet ing
臓P ark
臓ar rest
臓f ear
臓a w
臓V al
or ing
' ,
臓ext reme
ar r
臓work ers
A fter
臓3 1
n et
am ent
臓direct ly
臓pop ulation
ub e
臓Oct ober
臓I N
臓Jan uary
5 9
臓Dav id
臓c ross
ce mber
臓F irst
臓mess age
ir it
臓n ation
臓p oll
is ions
臓answ er
n y
is ode
臓car ry
臓Russ ia
臓he ar
eng th
ro y
臓n atural
in ally
臓do g
m itted
臓tr ade
臓sub st
臓mult iple
臓Af ric
臓f ans
臓s ort
臓gl obal
ic ation
臓W ed
ar a
臓a chie
臓langu age
ve y
臓t al
臓necess ary
臓det ails
臓s en
臓S und
臓Re g
臓R ec
0 6
臓s il
ress ive
臓med ical
un ch
orn ia
臓u nd
f ort
oc ks
臓M onday
ues day
c raft
7 7
ur t
臓 ver
臓H ill
臓rece ive
臓mor ning
es tern
臓b ank
臓s at
ir th
臓H igh
臓dev ice
臓TH E
臓Cent er
臓saf e
臓p le
臓Canad a
臓system s
臓ass ist
臓sur v
臓b attle
臓S oc
vert is
S he
臓p aper
臓grow th
臓c ast
S c
臓pl ans
ll ed
臓part s
臓w all
臓move ment
臓pract ice
im ately
臓dis play
臓somet imes
om p
臓P aul
臓Y es
k ing
5 8
o ly
臓s on
臓av oid
ok es
臓J ew
臓to wards
as c
臓 //
臓K ore
臓talk ing
臓cor rect
臓sp ent
ic ks
i able
e ared
臓ter m
臓want s
om ing
臓 ut
臓dou b
臓for ces
臓p lease
6 9
臓N ovember
at form
ond on
臓on es
臓immedi ately
臓Russ ian
臓M et
臓de g
臓parent s
C H
臓Americ ans
al y
臓M od
臓sh own
臓cond itions
臓st uff
臓re b
臓Y our
臓includ es
n own
臓S am
臓exper ien
m ission
臓E ven
augh t
臓announ ced
臓Republic an
臓deter min
臓describ ed
臓Count y
( )
臓do or
臓chang ed
臓ne igh
臓H ere
臓cle an
臓p an
臓De cember
臓Europe an
ir ing
ap ter
臓cl ub
臓T uesday
臓p aid
臓N et
臓attack s
臓charact ers
臓al one
臓direct or
d om
臓3 5
臓l oad
臓r out
臓Calif ornia
臓fin ally
臓r ac
臓cont r
臓exact ly
res h
p ri
臓Is lam
臓n ature
臓care er
臓lat est
臓con vers
臓S l
p ose
ci ent
臓In c
iv ity
8 8
臓A tt
臓M or
nes day
臓we ight
k en
臓not e
臓team s
臓 \
air s
臓G reen
臓h undred
on ent
臓stre ng
臓cons ist
ic ated
臓reg ul
臓l ic
ast ic
臓t en
urs day
ellig ence
ous ly
臓U K
B I
臓cost s
臓ind epend
臓A P
臓norm al
臓h om
臓ob vious
臓s we
臓st ar
臓read y
ac her
臓imp lement
g est
臓s ong
臓G et
臓L ab
臓interest ing
us ing
臓g iving
臓Sund ay
臓et c
臓m iddle
臓rem ember
r ight
os ition
ut ions
臓m ax
4 6
臓your self
臓dem and
臓treat ment
臓d anger
臓C ons
臓gu y
臓Brit ish
臓phys ical
臓rel ated
臓rem ain
臓could n
臓ref er
臓c itiz
b ox
EN T
bo ard
臓in n
I G
er o
臓St reet
osp ital
ren ch
cher s
臓st ra
O L
ag er
臓A N
臓eas ily
I A
en ge
in y
臓cl os
ock ed
臓us es
臓C oun
I m
u ild
? ?
m ore
臓an g
臓wr ite
ol ute
5 7
臓lead er
臓read ing
< /
臓aut om
est s
4 3
臓leg isl
臓G old
臓design ed
臓S T
臓Le g
a res
臓be aut
臓T ex
臓appear s
臓stru gg
臓R om
臓 00
臓cho ice
臓particular ly
臓F rom
op er
臓L ondon
ann ed
臓allow s
ob ile
臓differe nce
芒蘑 垄
臓V iew
臓Wed nesday
臓al though
臓rel ative
臓applic ation
ate ver
臓are n
臓my self
臓im ag
臓dis e
臓soc iety
臓fre qu
臓Eng lish
臓po or
臓D ay
臓writ ing
臓se ven
臓start ing
臓b ud
臓pr int
臓Tr ans
uf act
臓St ud
n ew
臓cr im
臓g ives
臓co ol
a e
i ance
臓Gener al
臓think ing
臓sa ve
臓lim ited
臓Part y
臓mean ing
p en
ow ers
臓J ack
E M
臓n ice
ru pt
臓g as
臓e ight
臓fe et
臓eff ort
臓 ign
ic it
B l
co in
臓op in
臓br ain
Wh ile
he st
臓Th ursday
臓would n
augh ter
臓tou ch
le ments
臓stud ies
臓cent er
c ont
or ge
臓comput er
臓investig ation
P l
or ks
臓200 8
臓incre asing
臓st ore
臓com ments
臓b al
m en
臓do ll
臓l iber
臓w ife
臓law s
atur day
it ness
臓mod ern
臓S k
臓administ ration
臓opportun ity
臓s al
臓power ful
M y
臓claim s
臓Ear th
ord s
臓t itle
臓es c
n ame
N ot
om en
臓be yond
臓c amer
臓se ll
it ute
ear ch
臓app l
im ent
4 2
臓Ar t
臓un f
臓viol ence
ur g
臓E ast
臓comp ared
臓opt ions
臓through out
臓v s
ig r
. [
ac hes
7 8
臓fil es
F L
E L
ar ian
臓J ames
臓A ir
an ch
臓det ail
臓pie ce
P S
臓n amed
臓educ ation
臓dri ve
臓item s
臓stud ent
ic ed
: :
ic o
臓th row
臓sc ene
臓comple x
臓200 9
臓pre c
臓B re
7 9
臓con cept
臓stat us
am ing
臓d ied
臓know ledge
臓begin ning
O D
ru ary
臓certain ly
臓gu ys
臓sl ight
in n
ound s
臓f ine
臓f at
ic ations
臓per haps
臓A nt
臓inc ome
臓htt ps
臓major ity
port s
st on
臓great er
臓fe ed
ent ially
臓saf ety
臓un ique
and om
臓g one
臓show ed
臓hist or
臓coun ter
i us
id a
臓lead ing
i pe
臓s end
臓Don ald
er ve
臓def ense
ines e
臓y es
臓F ire
臓Mus lim
ra q
臓contin ued
os h
臓prov ides
臓pr ison
臓P re
臓happ y
臓econom y
臓tr ust
ag s
臓G ame
臓weap ons
um an
臓C le
it ation
臓anal ysis
臓T imes
臓sc ience
- >
臓fig ure
臓dis app
ent y
臓soft ware
臓u lt
臓offic ers
N ew
I s
臓rem ains
臓Ind ia
臓p sych
ri ef
臓c at
es c
臓ob serv
臓st age
臓D ark
臓ent er
ch ange
臓pass ed
臓des pite
臓O ut
臓mov ie
r s
臓v oice
m ine
臓Pl ay
臓to ward
臓T er
臓reg ion
臓val ues
or ters
臓m ount
臓offic er
臓O ther
b an
臓h ous
w ood
ro om
I V
臓S un
se e
臓O ver
ro g
9 0
臓l ay
臓T ur
a wn
臓press ure
臓S ub
臓book s
ed om
臓S and
A A
ag o
臓re asons
f ord
臓activ ity
U T
N ow
臓Sen ate
ce ll
n ight
臓call s
in ter
臓let ter
臓R ob
臓J e
臓cho ose
臓L aw
G et
B e
臓ro b
臓typ es
臓pl atform
臓qu arter
R A
臓T ime
臓may be
臓C r
9 5
p re
臓mov ing
臓l if
臓go ld
臓s om
臓pat ients
臓tr uth
臓K e
ur ance
ant ly
m ar
臓char ge
臓G reat
臓ce le
---------------- ----------------
臓ro ck
ro id
an cy
臓cred it
a ud
B y
臓E very
臓mov ed
ing er
rib ution
臓n ames
臓stra ight
臓He alth
臓W ell
臓fe ature
臓r ule
臓sc he
in ated
臓Mich ael
ber g
4 1
il ed
b and
臓cl ick
臓Ang el
on ents
脗 艃
臓I raq
臓S aturday
臓a ware
p art
臓pat tern
O W
臓L et
臓gr ad
ign ed
臓associ ated
臓st yle
n o
i ation
a ith
il ies
臓st ories
ur ation
臓individual s
臓芒蘑 娄
m iss
臓Ass oci
ish ing
ab y
臓sum mer
臓B en
臓3 2
臓ar ch
ut y
臓Tex as
h ol
臓full y
臓m ill
臓follow ed
臓B ill
臓Ind ian
臓Sec ret
臓B el
臓Feb ruary
臓job s
臓seem ed
臓Go vern
i pped
臓real ity
臓l ines
臓p ark
臓meas ure
臓O ur
I M
臓bro ther
臓grow ing
臓b an
臓est im
臓c ry
臓S chool
臓me chan
臓O F
臓Wind ows
臓r ates
臓O h
臓pos itive
臓cult ure
ist ics
ic a
臓h ar
y a
ite ly
i pp
臓m ap
en cies
臓Will iam
I I
ak ers
5 6
臓M art
臓R em
臓al tern
it ude
臓co ach
row d
D on
臓k ids
臓j ournal
臓cor por
臓f alse
臓we b
臓sle ep
臓cont ain
臓st o
臓b ed
iver se
臓R ich
臓Ch inese
臓p un
臓me ant
k nown
臓not ice
臓favor ite
a ven
臓cond ition
臓pur pose
) )
臓organ ization
臓chall eng
臓man ufact
臓sus p
臓A c
臓crit ic
un es
uc lear
臓m er
vent ion
臓8 0
臓m ist
臓U s
臓T or
htt p
ol f
臓larg er
臓adv ant
臓rese ar
臓act ions
m l
臓ke pt
臓a im
, '
c ol
臓benef its
if ying
臓act ual
臓Intern ational
臓veh icle
臓ch ief
臓eff orts
臓Le ague
臓M ost
臓wa it
臓ad ult
臓over all
臓spe ech
臓high ly
臓fem ale
臓er ror
臓effect ive
5 4
臓enc our
w ell
臓fail ed
臓cons erv
臓program s
臓t rou
臓a head
5 00
vertis ement
I P
臓F ound
p ir
臓 %
臓cr ime
and er
臓loc ation
臓I ran
臓behav ior
az ing
臓r are
臓em b
臓ca used
臓sh ip
臓act ive
臓cont ribut
臓g reen
臓ac qu
臓ref lect
ven ue
臓f irm
臓b irth
] .
臓clear ly
臓em ot
臓ag ency
ri age
臓mem ory
9 8
S A
臓Se e
ac ing
C C
臓big gest
臓r ap
臓bas ic
臓b and
e at
臓sus pect
臓M ac
臓9 0
m ark
ist an
臓sp read
am s
k i
as y
ra v
臓R ober
臓demon str
r ated
臓abs olute
臓pl aces
臓im pl
ibr ary
臓c ards
臓dest roy
臓v irt
ve re
臓app eared
y an
p oint
臓be g
臓tem per
s pe
ant ed
ear s
臓D irect
臓l ength
臓bl og
am b
臓int eg
臓res ources
ac c
if ul
臓sp ot
臓for ced
臓thous ands
臓Min ister
臓qu al
臓F rench
at ically
臓gener ally
臓dr ink
臓th us
I L
od es
臓appro pri
臓Re ad
臓wh om
臓ey e
臓col lege
臓4 5
ire ction
臓ens ure
臓app arent
id ers
臓relig ious
臓min or
ol ic
臓t ro
臓Wh y
rib ute
m et
臓prim ary
臓develop ed
臓pe ace
臓sk in
st e
av a
臓bl ue
臓fam ilies
臓 ir
臓app ly
臓in form
臓Sm ith
C T
i i
臓lim it
臓res ist
........ ........
um n
臓conf lic
臓tw e
ud d
臓T om
臓l iter
qu e
b on
臓ha ir
臓event ually
臓p us
臓help ed
臓ag g
or ney
臓App le
臓f it
臓S ur
臓pre m
臓s ales
臓second s
臓streng th
臓feel ing
驴 陆
臓t our
臓know s
o om
臓ex erc
臓som ew
茂 驴陆
> >
臓sp okes
臓ide as
臓reg ist
so ft
臓D el
臓P C
臓pro pos
臓laun ch
臓bott om
T H
臓P lease
v est
it z
臓In ter
臓sc ript
臓r at
ar ning
臓 il
臓J er
臓A re
臓wh atever
ok en
ci ence
臓mod e
臓ag ree
臓s ources
臓init ial
臓rest rict
臓wond er
us ion
## ##
臓S il
vil le
臓b urn
t w
as ion
臓脗 拢
臓n or
u ing
臓re ached
臓s un
臓c ateg
ig ration
臓c ook
臓prom ot
臓m ale
臓cl imate
臓f ix
臓alleg ed
U R
all ed
臓im ages
C ont
ot a
臓school s
i os
臓d rop
臓st ream
臓M o
臓previous ly
al ing
臓p et
臓dou ble
臓( @
ann el
臓def ault
t ies
臓r ank
臓D ec
臓Coun cil
臓weap on
臓st ock
臓anal y
臓St r
臓pict ure
臓Pol ice
f erence
臓cent ury
臓citiz ens
臓on to
臓exp and
臓he ro
臓S ol
臓w ild
臓upd ate
臓custom ers
r ont
d ef
臓l ik
臓crim inal
臓Christ ian
S P
7 6
臓le aving
臓other wise
臓D ist
臓bas is
5 2
5 3
ic ip
臓B er
臓recomm end
臓fl oor
臓c rowd
ol es
臓7 0
臓cent ral
臓E v
臓d ream
臓down load
臓conf ir
臓Th om
臓wind ow
臓happ ens
臓un it
臓t end
臓s pl
臓bec omes
臓fight ing
臓pred ict
臓P ress
臓P ower
臓he avy
ak ed
臓f an
or ter
ate gy
B A
iz es
臓sp end
H ere
臓200 7
臓ad op
臓H am
臓foot ball
臓P ort
od ay
5 1
amp ions
臓trans fer
h t
臓3 8
ter m
ac ity
臓b ur
] ,
tern al
r ig
b ut
臓there fore
臓B ecause
res p
re y
臓m ission
S ome
臓not ed
臓ass um
臓dise ase
臓ed it
臓prog ress
r d
臓B rown
oc al
臓add ing
臓ra ised
臓An y
臓t ick
臓see ing
臓Pe ople
臓agre ement
臓ser ver
臓w at
臓deb ate
臓supp osed
il ing
臓larg est
臓success ful
臓P ri
臓Democr atic
臓j ump
臓Syri a
臓own ers
臓off ers
臓shoot ing
臓eff ic
se y
臓ha ven
ver se
te red
臓L ight
im al
臓B ig
臓def end
臓be at
臓record s
% )
臓sc en
臓employ ees
臓dev ices
he m
臓com mer
臓M ex
臓benef it
臓Pro f
臓il leg
臓sur face
臓Al so
臓h arm
ing ly
w ide
臓A lex
臓sh ut
臓C ur
臓l ose
p m
臓chall enge
se mb
臓st ation
臓int elligence
臓acc ur
臓Fl or
臓requ ires
臓M al
b um
臓h ospital
臓sp irit
臓off ered
臓produ ce
臓Comm un
臓creat ing
臓cr is
s pect
臓end ed
臓d aily
臓vot ers
land s
i as
i h
on a
臓sm art
臓Off ice
臓L ord
ri al
臓Intern et
臓circ um
臓extreme ly
' .
臓opin ion
臓M il
臓g ain
B S
臓F in
y p
臓use ful
臓bud get
臓com fort
is f
臓back ground
el ine
臓ep isode
臓en emy
臓tri al
臓estab lish
d ate
臓C ap
臓contin ues
臓show ing
臓Un ion
w ith
臓post ed
臓Sy stem
臓e at
ri an
臓r ise
臓German y
il s
臓sign ed
臓v ill
臓gr and
m or
臓Eng land
臓project s
um ber
臓conf erence
z a
臓respons ible
臓Ar ab
臓learn ed
芒蘑亩 芒蘑亩
i pping
臓Ge orge
O C
臓return ed
臓Austral ia
臓b rief
Q u
臓br and
ill ing
ab led
臓hig hest
臓tr ain
臓Comm ission
wh ile
臓n om
cept ion
臓m ut
臓Bl ue
臓inc ident
v ant
8 6
臓I D
臓n uclear
7 4
臓L ike
臓R E
臓M icro
l i
m ail
臓charg es
8 9
臓ad just
ad o
臓ear th
N A
臓pr ices
P A
臓d raft
臓run s
臓candid ate
ens es
臓manag ement
臓Ph il
臓M iss
臓te ach
g ram
臓understand ing
a it
ic ago
A dd
臓E p
sec ut
臓separ ate
臓inst ance
臓e th
臓un less
**** ****
臓F ore
in ate
臓oper ations
S p
臓f aith
g ar
臓Ch urch
ron ic
臓conf ig
os ure
臓activ ities
臓trad itional
臓3 6
臓d irection
臓mach ine
臓sur round
臓p ush
un ction
臓E U
臓eas ier
臓arg ument
G B
臓m icro
臓sp ending
iz ations
臓the ory
ad ow
臓call ing
臓L ast
臓d er
臓influ ence
臓comm it
臓ph oto
臓un c
ist ry
g n
ast e
ack s
臓dis p
ad y
d o
臓G ood
臓 `
臓w ish
臓reve aled
脗艂 脗艂
l ig
臓en force
臓Comm ittee
臓che m
臓mil es
臓interest ed
臓sol ution
ic y
in ct
臓- >
臓D et
臓rem oved
臓comp ar
e ah
臓pl ant
臓S ince
臓achie ve
臓advant age
臓slight ly
b ing
臓pl aced
u nder
201 5
臓M ad
臓t im
os es
臓c ru
臓R ock
臓most ly
臓neg ative
臓set ting
臓produ ced
臓m ur
臓connect ion
臓M er
臓dri ver
臓execut ive
臓ass ault
臓b orn
臓V er
t ained
臓struct ure
臓redu ce
臓dec ades
臓d ed
u ke
臓M any
idd en
臓le ague
S e
臓jo in
臓dis co
臓d ie
c ks
act ions
臓ass ess
ag n
臓go als
our s
I R
臓sen ior
ill er
m od
ip ment
oc ol
u y
臓Q ue
臓part ies
ir gin
臓le arning
it able
臓stre et
臓camer a
A pp
臓sk ills
b re
c ious
臓cele br
臓Fr anc
臓exist ing
臓will ing
l or
臓 id
臓Sp ace
臓crit ical
臓L a
ortun ately
臓ser ve
臓c old
臓spec ies
T S
臓anim als
臓B ay
臓old er
臓U nder
est ic
臓T re
臓te acher
臓pre fer
v is
臓th read
臓M att
臓manag er
茫磨 禄
臓profess ional
臓V ol
臓not es
The se
ul a
臓f resh
ent ed
u zz
ed y
clus ion
臓R el
臓doub t
E O
臓open ed
臓B it
Ad vertisement
臓gu ess
臓U N
臓se qu
臓expl ain
ott en
臓att ract
ak s
臓str ing
臓cont ext
oss ible
臓Republic ans
臓sol id
臓c ities
臓ask ing
臓r andom
u ps
ur ies
ar ant
dd en
g l
臓Flor ida
臓dep end
臓Sc ott
臓3 3
臓i T
ic on
臓mention ed
臓2 000
臓claim ed
臓defin itely
ul f
臓c ore
臓open ing
臓Con st
wh ich
臓T ra
A G
7 2
臓belie ved
ad a
臓4 8
臓Sec urity
yr ight
臓P et
臓L ou
臓hold ing
======== ========
臓 ice
臓b row
臓author ities
h ost
w ord
臓sc ore
臓D iv
臓cell s
臓trans l
臓neigh bor
臓rem ove
u ct
臓dist rict
臓A ccording
臓wor se
臓concern s
臓president ial
臓polic ies
臓H all
7 3
臓h us
A Y
臓200 6
臓J ud
臓independ ent
臓Just ice
ili ar
pr int
igh ter
臓protect ion
z en
臓su dden
h ouse
臓J es
P R
臓In f
臓b ul
臓 _
臓Serv ice
臓P R
臓str ategy
ff ect
臓girl s
臓miss ing
oy al
臓Te am
ul ated
臓d at
臓polit ics
ab or
A ccording
臓spe ll
臓g raph
ort hern
T C
A b
臓lab or
is her
臓k ick
臓iT unes
臓step s
pos es
臓small er
E n
ber t
臓ro ll
臓resear chers
臓cl osed
臓trans port
臓law y
________ ________
臓Ch icago
臓as pect
臓n one
臓mar riage
9 6
臓e lements
臓F re
臓S al
臓d ram
F C
t op
e qu
臓he aring
臓support ed
臓test ing
co hol
臓mass ive
臓st ick
臓gu ard
is co
ph one
F rom
How ever
臓b order
臓cop y
ograph y
l ist
7 1
臓own er
cl ass
ru it
r ate
臓O nce
臓dig ital
臓t ask
ER S
臓inc red
t es
+ +
臓Fr ance
臓b reat
ow l
臓iss ued
臓W estern
臓det ect
臓part ners
臓sh ared
臓C all
臓can cer
ac he
rib e
臓expl ained
臓he at
{ "
臓invest ment
臓B ook
臓w ood
臓tool s
臓Al though
臓belie f
臓cris is
臓g e
臓M P
臓oper ation
ty pe
~ ~
g a
臓cont ains
ant a
臓exp ress
臓G roup
臓J ournal
k a
臓am b
臓US A
臓find ing
臓fund ing
h ow
臓estab lished
ide os
臓deg ree
臓danger ous
ang ing
臓fre edom
pp ort
out hern
臓ch urch
臓c atch
臓Tw o
臓pres ence
臓Gu ard
U p
臓author ity
臓Pro ject
臓but ton
臓con sequ
臓val id
臓we ak
臓start s
臓ref erence
臓M em
" )
U N
or age
臓O pen
臓col lection
y m
g ency
臓beaut iful
ro s
臓tell s
臓wa iting
n el
臓prov iding
臓Democr ats
臓d aughter
臓m aster
臓pur poses
臓Japan ese
臓equ al
臓turn s
臓doc uments
臓watch ing
R es
臓r an
201 4
臓re ject
臓Kore a
臓victim s
Le vel
ere nces
臓w itness
臓3 4
臓re form
com ing
臓occ up
臓c aught
臓tra ffic
ad ing
臓mod els
ar io
臓serv ed
臓b atter
u ate
臓Secret ary
臓agre ed
臓tr uly
yn am
臓R et
臓un its
臓Res earch
h and
az ine
臓M ike
臓var iety
ot al
臓am azing
臓confir med
臓entire ly
臓purch ase
臓e lement
臓c ash
臓deter mine
D e
臓c ars
臓W all
芒 母
臓view s
臓drug s
臓dep artment
臓St ep
u it
臓3 9
as ure
臓Cl ass
臓c overed
臓B ank
臓me re
u ana
臓mult i
臓m ix
臓un like
lev ision
臓sto pped
臓s em
臓G al
ul es
臓we l
臓John son
l a
臓sk ill
臓bec oming
ri e
臓appropri ate
f e
ell ow
臓Pro t
ul ate
oc ation
臓week end
od ies
臓sit es
臓anim al
臓T im
臓sc ale
臓charg ed
臓inst ruct
ill a
臓method s
臓c ert
臓jud ge
臓H el
臓doll ars
臓stand ing
臓S qu
臓deb t
l iam
臓dri ving
臓S um
臓Ed ition
臓al bum
and on
I F
臓U k
6 3
ad er
臓commer cial
es h
臓Govern ment
臓disc overed
臓out put
臓Hill ary
臓Car ol
臓200 5
臓ab use
anc ing
臓sw itch
臓ann ual
T w
臓st ated
ag ement
in ner
臓dem ocr
臓res idents
臓allow ing
臓fact ors
od d
臓f uck
em ies
臓occur red
ot i
臓n orth
臓P ublic
臓inj ury
臓ins urance
C L
oll y
茫 蘑
臓repe ated
臓ar ms
ang ed
臓const ruction
臓f le
P U
ic ians
臓for ms
臓Mc C
ant ic
臓m ental
p ire
臓equ ipment
臓f ant
臓discuss ion
臓regard ing
k in
ar p
臓ch air
og ue
臓pro ceed
臓I d
O ur
臓mur der
M an
臓4 9
as p
臓supp ly
臓in put
臓we alth
liam ent
臓pro ced
or ial
臓St at
臓N FL
hen s
臓Inst itute
臓put ting
ourn ament
et ic
臓loc ated
臓k id
er ia
r un
臓pr inc
臓 !
go ing
臓B et
臓cl ot
臓tell ing
臓prop osed
i ot
or ry
臓fund s
g ment
臓L ife
臓b aby
臓B ack
臓sp oke
Im age
臓ear n
臓A T
g u
臓ex change
臓L in
ov ing
臓p air
M ore
az on
臓arrest ed
臓kill ing
c an
臓C ard
y d
臓ident ified
臓m obile
臓than ks
ony m
臓F orm
臓hundred s
臓Ch ris
臓C at
臓tre nd
h at
臓A v
om an
臓elect ric
臓W il
S E
O f
臓rest aur
ot ed
臓tr ig
臓n ine
臓b omb
Wh y
脗 炉
臓co verage
臓app eal
臓Rober t
臓S up
臓fin ished
臓fl ow
臓del iver
臓cal cul
臓phot os
臓ph il
臓pie ces
臓app re
k es
臓r ough
D o
臓part ner
臓concern ed
臓3 7
臓G en
C ol
ct ors
臓= >
st ate
臓suggest ed
臓For ce
C E
臓her self
臓Pl an
w orks
o oth
ren cy
臓cor ner
臓hus band
臓intern et
臓A ut
em s
os en
臓At l
g en
臓bal ance
6 2
臓sound s
te xt
臓ar r
ov es
臓mill ions
臓rad io
臓sat isf
臓D am
M r
G o
S pe
臓comb at
r ant
臓G ree
臓f uel
臓dist ance
臓test s
臓dec re
臓E r
臓man aged
D S
臓t it
臓meas ures
臓L iber
臓att end
as hed
臓J ose
臓N ight
d it
臓N ov
臓E nd
out s
臓gener ation
臓adv oc
y th
臓convers ation
臓S ky
act ive
ce l
ri er
臓Fr ank
臓g ender
臓con cent
臓car ried
and a
臓V irgin
臓arri ved
ic ide
ad ed
臓fail ure
臓min imum
le ts
臓wor st
臓keep ing
臓int ended
臓illeg al
臓sub sc
臓determin ed
臓tri p
Y es
臓ra ise
臓 ~
臓feel s
臓pack age
臓J o
h i
201 6
re al
臓f ra
臓sy mb
M e
uck y
p ret
臓K h
臓Ed it
臓We b
em ic
臓Col or
臓just ice
I nt
臓far m
ck now
" >
el ess
臓redu ced
臓5 00
x x
臓R ad
臓W ood
臓cl in
臓hy p
il er
ur a
k ins
8 5
6 1
臓The ir
臓M ary
臓s an
臓no vel
臓Wh o
臓cap acity
臓imp ossible
臓pl ays
臓min ister
ij uana
ic ate
臓S et
臓f ram
臓 ing
臓commun ities
臓F BI
it a
臓b on
臓str ateg
臓interest s
l ock
g ers
m as
臓AN D
臓conflic t
臓require ments
臓s ac
臓oper ating
in i
rel ated
臓comm itted
臓relative ly
臓s outh
脗炉 脗炉
臓aff ord
臓ident ity
臓dec isions
臓acc used
pl ace
臓vict ory
o ch
i at
N ame
C om
t ion
ed s
臓see k
臓t ight
臓Im ages
臓init i
臓hum ans
臓fam iliar
臓aud ience
臓intern al
vent ure
臓s ides
臓T O
臓d im
臓con clud
臓app oint
臓enforce ment
臓J im
臓Associ ation
臓circum st
臓Canad ian
臓jo ined
臓differe nces
臓L os
臓prot est
臓tw ice
w in
臓gl ass
ars h
臓Ar my
臓exp ression
臓dec ide
臓plan ning
an ia
臓hand le
臓Micro soft
臓N or
臓max imum
臓Re v
臓se a
臓ev al
臓hel ps
re f
臓b ound
臓m outh
臓stand ards
臓cl im
臓C amp
臓F ox
cl es
臓ar my
臓Te chn
ack ing
x y
S S
臓4 2
臓bu g
臓Uk rain
臓M ax
臓J ones
臓Sh ow
l o
臓plan et
臓7 5
臓win ning
臓f aster
臓spe ct
臓bro ken
T R
臓def ined
臓health y
臓compet ition
htt ps
臓Is land
臓F e
臓announ ce
臓C up
臓Inst ead
臓cl ient
臓poss ibly
se ction
ock et
l ook
臓fin ish
臓cre w
臓res erv
臓ed itor
臓h ate
臓s ale
臓contro vers
臓p ages
w ing
臓num er
臓opp osition
臓200 4
臓ref uge
臓fl ight
臓ap art
臓L at
A meric
臓Afric a
臓applic ations
臓Pal est
臓B ur
臓g ar
臓Soc ial
臓up gr
臓sh ape
臓spe aking
ans ion
a o
臓S n
臓wor ry
臓Brit ain
P lease
rou d
臓h un
臓introdu ced
臓d iet
I nd
臓Sec ond
臓fun ctions
ut s
臓E ach
臓Je ff
臓st ress
臓account s
臓gu arant
臓An n
ed ia
臓hon est
臓t ree
臓Afric an
臓B ush
} ,
臓s ch
臓On ly
臓f if
ig an
臓exerc ise
臓Ex p
臓scient ists
臓legisl ation
臓W ork
臓S pr
脙 膜
臓H uman
臓 猫
臓sur vey
臓r ich
ri p
臓main tain
臓fl o
臓leaders hip
st ream
臓Islam ic
臓 01
臓Col lege
臓mag ic
臓Pr ime
臓fig ures
201 7
ind er
x ual
臓De ad
臓absolute ly
臓four th
臓present ed
resp ond
rib le
臓al cohol
at o
臓D E
por ary
臓gr ab
臓var i
臓qu ant
臓Ph oto
臓pl us
r ick
ar ks
臓altern ative
臓p il
臓appro x
th at
臓object s
臓R o
臓And roid
臓significant ly
臓R oad
k ay
R ead
av or
臓a cknow
臓H D
臓S ing
O r
臓M ont
臓un s
pro f
臓neg oti
臓Ar ch
ik i
臓te levision
臓Jew ish
臓comm ittee
臓mot or
臓appear ance
臓s itting
臓stri ke
臓D own
com p
臓H ist
臓f old
ac ement
臓Lou is
臓bel ong
臓芒蘑 垄
臓m ort
臓prep ared
臓6 4
臓M aster
臓ind eed
臓D en
臓re nt
T A
our ney
ar c
S u
9 7
臓adv ice
臓chang ing
臓list ed
臓laun ched
is ation
臓P eter
is hes
臓l ived
臓M el
臓Sup reme
臓F ederal
臓) ;
ruct ure
臓set s
臓phil os
u ous
臓脗 艂
臓appl ied
臓N OT
臓hous ing
臓M ount
臓o dd
臓su st
D A
ffic ient
臓 ?
ol ved
臓p owers
臓th r
臓rem aining
臓W ater
L C
臓ca uses
茫模 庐
臓man ner
ad s
臓suggest s
臓end s
stand ing
f ig
臓D un
id th
臓g ay
臓ter min
臓Angel es
M S
臓scient ific
臓co al
ap ers
b ar
臓Thom as
臓sy m
臓R un
th is
P C
igr ants
臓min ute
臓Dist rict
cell ent
臓le aves
臓comple ted
am in
臓foc used
臓mon itor
臓veh icles
M A
臓M ass
臓Gr and
臓affect ed
itution al
臓const ruct
臓follow s
臓t on
re ens
臓h omes
臓E xt
臓Le vel
r ast
臓I r
臓el im
臓large ly
臓J oe
臓vot es
all s
臓business es
臓Found ation
臓Cent ral
臓y ards
臓material s
ul ner
臓gu ide
臓clos er
um s
臓sp orts
ed er
J ust
臓tax es
8 4
臓O ld
臓dec ade
ol a
臓v ir
臓dro pped
臓del ay
it ect
臓sec ure
ste in
le vel
臓tre ated
臓fil ed
ain e
臓v an
臓m ir
臓col umn
ict ed
e per
臓ro t
臓cons ult
臓ent ry
臓mar ijuana
臓D ou
臓apparent ly
ok ing
clus ive
臓incre ases
an o
臓specific ally
臓te le
ens ions
臓relig ion
ab ilities
臓fr ame
臓N ote
臓Le e
臓help ing
臓ed ge
ost on
臓organ izations
脙 磨
臓B oth
hip s
臓big ger
臓bo ost
臓St and
臓ro w
ul s
ab ase
臓r id
L et
are n
ra ve
臓st ret
P D
臓v ision
臓we aring
臓appre ci
臓a ward
臓U se
臓fact or
w ar
ul ations
) (
臓g od
臓ter rit
臓par am
ast s
8 7
臓en emies
臓G ames
F F
臓acc ident
W ell
臓Mart in
T ER
臓at h
臓He ll
臓for g
臓ve ter
臓Med ic
f ree
臓st ars
臓exp ensive
臓ac ad
ra wn
臓W he
臓l ock
臓form at
臓sold iers
s m
臓ag ent
臓respons ibility
or a
臓S cience
臓rap id
臓t ough
臓Jes us
臓belie ves
M L
臓we ar
le te
脙磨 脙膜
臓D ri
臓comm ission
臓B ob
O h
ap ed
臓war m
脙磨脙膜 脙磨脙膜
臓200 3
ort ion
臓has n
ust er
臓un ivers
臓I ll
臓k ing
olog ies
9 4
臓T em
臓M os
臓pat ient
臓Mex ico
ce an
臓De ath
臓Sand ers
y ou
臓C ast
臓Comp any
pt y
臓happen ing
F P
臓B attle
臓b ought
A m
M od
U s
ut ers
臓C re
臓Th ose
臓4 4
is er
臓s oul
臓T op
臓Har ry
臓A w
臓se at
ff ee
臓rev olution
臓( "
臓D uring
et te
臓r ing
臓off ensive
臓return s
臓v ideos
臓dis cl
臓fam ous
en ced
臓S ign
臓R iver
臓3 00
P M
臓B us
臓C H
臓candid ates
ard en
臓percent age
臓vis ual
臓than k
臓trou ble
ner gy
臓200 1
臓pro ve
ash ion
臓en h
臓L ong
U M
臓connect ed
臓poss ibility
O ver
臓exper t
臓l ibrary
art s
臓Direct or
臓fell ow
9 2
ir ty
臓d ry
臓sign s
臓L ove
臓qu iet
f oot
臓p ure
臓H un
臓f illed
ph as
臓E lect
end ment
臓Ex pl
臓un able
n s
m o
臓v ast
ob e
臓ident ify
app ing
臓Carol ina
g ress
臓pro te
臓f ish
臓circumst ances
raz y
臓Ph ot
臓b odies
臓M ur
臓develop ing
臓A R
臓experien ced
臓subst ant
臓Bo ard
es ome
臓dom estic
臓comb ined
臓P ut
臓chem ical
臓Ch ild
臓po ol
臓C y
臓e gg
c ons
st ers
臓h urt
臓mark ets
臓conserv ative
臓supp orters
臓ag encies
id el
O b
ur b
臓4 3
臓Def ense
y e
臓A p
du le
臓temper ature
臓conduct ed
臓Ch ief
臓pull ed
臓f ol
L ast
ont o
os is
V ER
D es
臓P an
F irst
臓adv ance
臓lic ense
r ors
臓J on
臓imag ine
臓he ll
臓f ixed
臓inc or
os ite
臓L og
ick en
] :
臓surpr ise
h ab
臓c raft
ol t
臓J ul
臓d ial
臓rele vant
臓ent ered
臓lead s
臓A D
臓Cle an
臓pict ures
ess or
臓al t
臓pay ing
P er
臓Mark et
臓upd ates
am ily
臓T ype
臓H ome
臓5 5
semb ly
rom e
8 3
臓great est
臓he ight
臓he av
ain ts
臓list en
as er
臓S H
臓cap able
ac le
臓pers pect
in ating
臓off ering
ry pt
臓De velop
ab in
r c
臓br ight
al ty
ar row
臓supp l
ind ing
ack ed
gy pt
臓An other
p g
臓Virgin ia
臓L u
臓pl anned
臓p it
臓swe et
T ype
臓D i
臓typ ically
臓Franc isco
臓pro spect
臓D an
臓te en
re es
臓sc hed
臓h ol
臓sc r
臓lot s
l ife
臓news p
臓for get
臓N one
臓M iddle
臓R yan
ed d
臓se vere
臓su it
ll er
9 3
臓cor respond
臓expl os
u ations
臓fl ag
g ame
r id
臓pr in
臓D ata
臓de ploy
臓En ter
su it
gh an
臓M en
臓though ts
臓mat ters
臓ad apt
臓A ri
臓f ill
臓for th
臓s am
臓4 1
臓pay ment
臓H or
臓sp ring
du c
臓l osing
臓bring ing
F O
al a
臓dist ribution
he red
b our
臓Israel i
om a
臓comb ination
臓pl enty
V E
C an
臓H aw
臓per man
臓Spe cial
臓to w
臓see king
臓exam ples
臓class es
c r
臓be er
臓mov es
臓I P
臓K n
臓pan el
E ven
臓proper ly
臓r is
臓pl ug
臓estim ated
E very
臓def ensive
ag raph
臓pre gn
臓inst it
臓V ict
臓vol ume
臓pos itions
臓l inks
臓Pro gram
臓We ek
ag ues
臓trans form
k er
臓C EO
臓c as
臓opp onent
臓twe et
臓C ode
臓sh op
臓f ly
臓tal ks
臓b ag
Ph one
臓a id
臓pl ants
臓6 5
臓att orney
ar ters
qu est
臓Mag ic
臓beg ins
臓my ster
臓environment al
臓st orage
N N
臓m arg
臓s ke
臓met al
ell y
臓ord ered
臓rem ained
臓l oved
臓prom pt
臓upd ated
臓exper ts
臓walk ing
臓an cient
臓perform ed
AT E
臓ne ither
i ency
臓manufact ure
臓P ak
臓select ed
臓m ine
臓ult imately
臓expl an
臓lab el
臓Serv ices
ribut ed
Tr ump
臓sy n
臓U lt
S C
臓me at
臓g iant
臓W ars
臓O N
臓ad m
臓inter pret
臓even ing
臓ev il
臓B oston
臓W ild
臓 脙
臓Bit coin
臓Am azon
D r
臓In formation
臓obvious ly
臓adv anced
Ph oto
ol ar
臓we ather
臓symb ol
臓so le
臓pot entially
ost er
臓orig inally
m un
3 00
az e
ess ions
臓de ck
臓st ood
臓you th
臓B ern
R ep
臓T est
臓bas ically
ot ic
臓invol ve
ol it
ly n
S ee
臓air craft
臓conf irm
E W
臓mess ages
臓Rich ard
臓k it
臓pro hib
臓v ulner
is ters
臓exist ence
臓turn ing
臓S P
臓des ire
臓fl at
臓m ent
se ason
ang es
臓neighbor hood
臓L ake
AT ION
臓point ed
b ur
臓inn ov
uc ks
U L
臓profess or
臓exp ressed
A B
ic ious
臓200 2
臓De v
臓s ession
臓b are
s en
臓dis s
臓C ath
臓P ass
臓P oint
臓do ctor
or row
ail ed
臓R ub
臓D C
臓Char l
p erson
臓writ er
igh ters
ure au
臓ob lig
臓record ed
臓bro ke
臓ord ers
il ty
臓mot ion
in ity
l aw
ad ium
臓imm igration
臓contr ast
臓b att
臓ex cellent
臓techn ical
am i
臓t un
臓cl oud
臓Y ear
ge on
臓cre ation
臓str ange
臓a uth
臓for t
b orn
臓ext ent
臓T oday
臓Cl ub
臓r ain
臓s ample
臓accept ed
臓t act
臓f ired
臓S on
臓stand s
臓b oot
臓4 7
臓stat ements
臓vers ions
臓se lling
ound ed
臓199 0
臓were n
臓W atch
臓exper iment
P ost
臓ret ail
ul ed
In st
un te
茫磨 录
臓dep art
臓b ond
i very
om pl
臓re action
臓Syri an
臓P ac
app ed
ani el
D P
臓res olution
臓re act
臓appro ved
on om
m ond
臓O ffic
-- -
臓repl ace
臓t ack
臓sp ort
臓ch ain
臓emer gency
r ad
臓Palest in
臓4 6
臓autom atically
臓rout e
臓p al
臓b anks
臓Par is
臓Med ia
ro ad
ic ing
i xt
ist ed
臓g rew
臓co ord
臓W here
om in
臓sub s
茂驴陆 茂驴陆
臓脗 卤
臓corpor ate
臓se lection
n oon
臓Rep ort
c s
clud ing
ord ers
anc he
臓It s
臓slow ly
臓E gypt
臓A cc
臓col le
iqu es
E X
臓attempt s
ur l
臓C ross
臓find ings
臓S C
臓O R
臓ind ex
ens ity
臓W ay
臓L and
臓sh ock
d is
臓d ynam
臓c art
m osp
S ince
i est
臓B oy
臓st orm
臓Cont in
201 3
he w
il it
臓ess ential
iqu id
O ther
ive red
臓reason able
A ct
臓sub sequ
臓P ack
臓F ort
臓consider ing
臓un iversity
l og
臓mar ried
臓ill ust
臓Tr ue
拢 谋
臓numer ous
rast ructure
臓serious ly
臓refer red
u a
臓consist ent
on na
臓Re al
ru ption
ci ples
臓fact s
9 1
ot es
er g
The n
臓acc ompl
N ote
臓re venue
臓pass ing
臓m al
e en
臓Y et
臓g ather
ter day
ew ork
臓A uthor
P e
臓opt im
臓r ub
臓猫 拢谋
臓un known
st one
臓un ion
ol ve
臓opportun ities
臓brow ser
臓W al
臓C ost
臓report ing
st s
p et
臓s and
臓sudden ly
臓surpr ising
臓V R
臓somew hat
臓B as
ult ure
iz z
臓C D
臓challeng es
臓sett ings
臓experien ces
臓F ull
臓can n
臓rece iving
ES T
臓j oint
臓cult ural
臓a st
8 2
as tern
ce ived
臓C ru
臓b ull
p ired
am m
臓fac ing
p ower
臓b oss
臓H ol
臓inst r
臓increasing ly
臓sh ift
臓stre ets
臓William s
ab b
臓l ie
臓l augh
臓C a
P L
臓adult s
臓custom er
臓ob tained
臓support ing
ht ml
f ire
臓detail ed
臓pick ed
臓R ight
ld er
E E
st ood
臓K im
臓w ire
臓s ight
臓develop ers
臓pers ons
臓s ad
臓c up
臓war ning
臓boy s
l ong
臓b ird
f o
臓w al
臓observ ed
臓z one
iven ess
臓ch annel
c ript
臓ref used
臓Ag ain
臓su c
臓spokes man
臓Re f
r ite
ou ston
茫磨 鲁
臓S her
臓act s
臓N ame
臓strugg le
ar ry
omet imes
臓disc rim
H T
臓categ ory
臓real ize
臓employ ee
臓Af ghan
en ger
臓gun s
臓Ste ve
臓M ot
臓O l
ok ed
臓th ick
臓fair ly
ill y
臓sur ve
臓M at
we ight
芒 亩
臓tro ops
臓ag ents
臓batter y
臓mot iv
脙 隆
S ec
d en
o very
L S
臓fl u
臓conf ident
臓O per
臓em pty
臓p hen
臓se ctor
臓exc ited
臓rem ote
ap h
o en
臓destroy ed
臓mor al
臓H P
臓R on
臓d ress
臓B at
臓l it
臓M S
臓a f
H L
r um
is ms
臓should n
臓sym pt
臓Tor onto
het ic
臓car bon
臓install ed
臓viol ent
臓sol ar
j a
臓pract ices
臓r ide
臓P enn
臓impro ved
臓aud io
臓behav i
臓P S
臓e ating
D ata
臓Re view
p ass
cl aim
u ated
ang ers
c hen
臓proper ties
臓any where
An other
臓bl ow
臓Jack son
臓p roud
臓plan e
l ines
臓squ are
臓pro of
ans as
臓talk ed
m akers
臓s ister
臓hold s
臓res ident
臓= =
臓resist ance
臓spl it
臓pro secut
臓conf idence
res ents
臓cut s
臓except ion
臓z ero
Get ty
臓cop yright
臓tot ally
orm al
ific ations
臓Austral ian
臓s ick
臓1 50
臓house hold
臓fe es
臓dri vers
og en
臓N Y
臓necess arily
臓regul ations
ear ing
s l
臓perspect ive
c are
ic ial
H is
臓esc ape
臓surpr ised
臓V an
ur rent
臓v ac
8 1
臓Th us
臓em phas
臓Ch ampions
臓I ce
臓n arr
臓head s
臓ca using
b el
f ortunately
臓M a
臓targ ets
ci pl
臓after noon
臓add s
臓May be
臓F our
ess ed
ple te
臓us ual
ch o
ing u
臓with d
臓E nergy
臓E conom
O O
臓art icles
臓inj ured
臓man age
臓expl ains
臓di agn
R ec
at ures
臓link ed
臓discuss ed
臓expl o
臓occ asion
ath an
臓opp osite
臓fac es
臓den ied
臓K night
臓n ut
臓approx imately
臓disapp oint
onym ous
臓B est
臓L o
臓H y
臓A ff
臓vot ing
an while
臓II I
臓instit utions
ag ram
臓D aily
臓dr ag
臓near by
臓gu ilty
臓con ver
P re
s hip
臓re ward
臓philos oph
臓S S
u gh
臓app s
f riend
臓u pper
臓ad vert
臓s now
臓fr ust
臓our selves
F r
臓D ie
amp ion
臓dis miss
臓c ere
臓sign al
f rom
臓 ).
臓5 2
臓cr imes
it ors
est ival
use um
臓coun cil
臓S aud
M ay
臓G un
ic ian
et her
臓su fficient
臓H en
so le
臓histor ical
臓F ar
臓T urn
臓p in
臓suc ceed
m at
ly mp
臓trad ition
臓O k
臓c ro
臓desc ription
al le
臓sk y
T e
臓wide ly
臓w ave
臓defin ition
臓Jew s
臓cy cle
臓ref ere
臓br ings
us al
臓al ive
臓frequ ently
臓int ention
臓Cont rol
l v
y stem
臓priv acy
g ent
ren ce
臓Qu est
臓Christ mas
臓r ail
臓co oper
臓test ed
臓C apt
as ks
臓comfort able
臓del ivered
sc ape
臓dep th
臓G OP
臓writ es
臓ass ets
臓sa v
im ents
臓trans ition
臓art ist
臓L ook
臓l ob
臓comp onents
ar ity
臓walk ed
臓ro ot
臓particip ants
臓not iced
臓res c
臓n av
臓Ad minist
d a
ut ral
pl ate
臓import ance
臓ass ert
ious ly
c ription
臓inj uries
臓Che ck
臓regist ered
臓int ent
臓miss ed
ograph ic
臓sent ence
oun ter
臓assist ance
ev in
臓dat abase
臓build ings
臓class ic
臓th inks
臓Oh io
P r
ug g
臓fe e
p an
臓effect ively
臓fac ility
臓be ar
臓ch apter
臓dog s
臓Col umb
臓l atter
it ial
臓ad mitted
T V
臓Ge org
臓post s
\ \
臓lawy er
臓equ ival
臓m and
臓contro lled
臓W alk
臓And rew
臓men u
am ental
臓protect ed
v a
臓administ r
or al
臓re in
臓S ar
臓amount s
臓n ative
臓M oon
臓rep resents
臓ab andon
臓carry ing
臓t ank
m ary
臓decl ared
T ube
臓h at
臓pun ish
el lect
m es
臓un iverse
臓R od
ph y
臓inf rastructure
臓5 1
臓opp osed
ow nt
c a
臓M ake
臓hard ware
臓co ffee
R el
b al
w orld
臓S af
臓Se a
in als
臓own ed
臓h all
ers ion
臓describ e
臓P ot
臓port ion
臓at mosp
臓govern ments
臓dep ending
臓off ense
臓tr ick
aw a
臓L ine
臓V is
臓H ard
臓Or ig
臓Cl ick
臓des k
臓Val ley
臓S ov
臓mov ies
臓rem ark
臓m ail
臓cons cious
臓rul ing
臓R ights
臓med ic
he nt
臓W omen
> <
臓repl aced
臓P rem
臓Th anks
臓re new
臓B all
if orm
臓sh ots
C omm
臓ar med
臓const ant
臓t aste
臓real ized
臓bu ff
臓m o
臓effic ient
M ost
or ation
if ies
臓commun ication
臓fl ood
臓consequ ences
臓any way
ig g
臓G M
臓Th ank
臓 iron
臓ev olution
臓C op
tw itter
臓9 5
臓relationship s
ad el
臓You ng
臓propos al
ay ers
uild ing
臓H ot
OR E
c os
臓coll abor
P G
ax y
臓know ing
臓support s
ow ed
臓control s
臓mere ly
um er
臓ath let
臓f ashion
p ath
臓g ift
臓er a
AN D
臓kind s
臓Kore an
臓leg it
ul ous
臓ess entially
臓the rap
n ic
臓suff ered
臓h ur
臓prom ise
臓ex cess
臓over w
臓pr ime
臓H ouston
er ry
臓M s
R S
201 2
臓st ores
臓O lymp
臓j ourney
Al though
S ub
臓E duc
臓Ch apter
臓request s
臓consum ers
臓t iny
臓is ol
臓F air
b a
臓Y OU
臓cr ash
ce ler
臓emot ional
臓good s
臓elect ed
臓mod er
臓Lin ux
臓bl ocks
臓is land
臓Soc iety
臓elect ions
臓broad cast
臓che ap
臓n ations
臓se asons
4 00
臓was te
臓S at
臓field s
em ploy
臓prof ile
臓auth ors
AL L
臓G ra
w est
臓T y
臓death s
臓v acc
臓for med
臓d u
臓on going
臓Muslim s
el f
ig ure
臓ass ume
臓Ukrain e
w ater
臓co ast
臓vot ed
g or
臓A S
臓Mich igan
az a
臓Ar m
i ro
臓f lex
as ters
' '
臓wel come
ar l
臓loc ations
ig ation
臓F il
臓bu ying
臓arch itect
臓hard er
臓C ub
臓inter face
臓restaur ant
臓disco ver
臓ex ceed
臓fav our
ger y
臓d uty
臓p itch
ad or
臓M ach
b oy
臓respond ed
臓ext ended
her s
M any
ra id
if er
臓In s
S er
臓med ium
s he
臓S ports
臓mag azine
ut ation
臓lim its
臓G all
臓ex ternal
raz il
臓young er
t le
臓rem ind
臓C ON
臓immedi ate
臓h idden
臓vol unte
臓sim pl
od cast
臓ph ase
d r
臓pl ot
臓exp osure
R I
og rap
v in
an ish
臓Ac ad
臓Eng ine
臓exp ansion
臓P ay
Y our
臓pus hed
臓E ll
臓He ad
臓market ing
臓A C
k et
臓h its
臓g ro
臓A ge
臓Sc ot
] [
臓st im
臓i Phone
莫 拇
臓n arrow
臓Get ty
臓Tur key
臓perfect ly
臓en able
ut ch
臓prec ise
臓reg ime
臓sh if
臓comp ens
g un
d iv
臓ch osen
臓K en
An y
臓tre es
臓recomm ended
臓R en
u able
臓H T
F ollow
E G
臓H and
臓K enn
臓arg uments
臓ex ists
臓b ike
臓Cons erv
臓bre aking
臓G ar
臓c razy
臓virt ual
ay lor
ix el
臓19 80
臓per mission
臓Ser ies
臓consum er
臓close ly
c alled
臓5 4
臓hop es
臓ar ray
臓W in
臓Lab our
臓sp ons
臓I re
臓p ow
臓read ers
臓employ ment
臓creat ure
臓result ing
臓accur ate
臓mom ents
臓arg ued
臓p ed
D uring
臓5 3
臓T al
臓s ought
臓suff ering
臓 icon
le e
臓( $
al ian
脗 掳
臓p ra
臓bon us
( "
k o
臓act ing
D E
f all
臓compar ison
臓sm ooth
臓N AS
u pp
臓Jose ph
ep ing
臓T ake
臓M id
臓s ending
f ast
臓F all
臓deal ing
us er
臓Or gan
C o
臓att ached
臓se es
% .
臓typ ical
AR T
臓find s
臓As ia
um in
臓C ore
臓E nt
in ent
u ce
臓Bl ood
臓N ever
臓em ails
臓high light
臓conf ront
at us
ut ed
臓un us
臓top ic
臓Ad am
臓b le
at i
臓under stood
S et
st ruct
T P
臓m ob
a a
臓St art
pect ed
se ll
臓ded icated
臓C A
u an
臓song s
esc ription
臓te ch
臓r ape
臓as ide
臓gr ant
臓5 6
s ub
臓arg ue
臓cont aining
臓sche dule
臓liber al
臓public ly
臓heav ily
臓U t
in er
臓S ection
臓C are
we et
l s
D is
芒亩 蘑
臓F ollow
B ack
臓I T
臓b es
j i
臓H it
est ed
臓every body
臓Sw ed
臓fem in
臓fac ilities
臓con ven
C omp
臓O S
c ore
臓an x
臓div ision
臓C am
臓St an
m ates
臓expl ore
pl om
臓sh ares
pl oad
an es
臓ide al
et ers
臓B ase
臓pl astic
臓dist inct
臓Net work
臓Se attle
臓trad ing
ens us
int end
臓ex hib
臓init ially
臓F ood
臓thous and
臓Bus iness
act er
臓par agraph
臓rough ly
臓w ww
臓creat ive
臓Con f
臓consum ption
臓fil ms
ag an
臓ob tain
臓t all
臓t or
臓acknow led
臓g rown
al o
K E
臓4 00
end ers
t aining
U G
臓su icide
臓wat ched
臓L ist
al i
re hens
臓surround ing
臓p ip
臓f lying
臓J ava
ord an
臓serv ing
in ations
p ost
臓sh o
A v
臓j ail
z y
臓199 9
臓< /
臓liter ally
臓S ir
臓exp osed
臓l ies
st ar
臓b at
臓ear ned
臓D ig
臓spec ified
臓Se ason
臓deg rees
Don ald
臓cent re
臓sh aring
臓win ter
臓C O
C he
臓 脦
M P
臓un w
臓few er
臓M ir
臓somew here
臓K ey
臓attack ed
臓K ir
臓dom ain
臓strong er
臓9 9
臓pen alty
I d
Sc ript
臓decl ined
臓ne ck
臓fra ud
臓cur rency
臓r ising
R C
芒蘑娄 芒蘑娄
H z
臓t ab
臓tal ent
n am
臓N BA
臓vill age
臓leg s
臓N ext
E d
臓ac id
臓hy d
8 00
臓invol ving
臓Im age
臓Be fore
F l
臓yes terday
S ource
臓terror ist
臓su p
臓sy nt
臓Saud i
臓w est
臓r u
b urg
臓vis ible
臓stru ck
r ison
臓aw esome
臓d rawn
臓answ ers
臓G irl
臓R am
臓threat s
臓def eat
os it
臓v ent
atur ally
Americ an
end a
臓H oly
臓r um
% ,
c ase
臓Hist ory
臓You Tube
臓sit uations
臓D NA
S te
臓sa ved
It em
臓rec ip
olog ist
臓fac ed
臓el ig
O nce
臓L i
u h
臓mist ake
臓Div ision
臓B ell
臓sympt oms
脗 庐
臓dom in
臓fall ing
臓end ing
as hes
臓mat ches
臓On line
臓explan ation
D ef
red it
臓any more
臓T otal
臓F OR
us hed
臓let ters
臓ris ks
臓O K
臓reported ly
: \
臓pl ate
臓subject s
臓attempt ed
if ier
ian a
臓unlike ly
臓Th ough
um a
臓In vest
臓Pr in
ic an
臓D ar
臓Color ado
au g
臓ve get
a os
ri a
臓she l
臓mark ed
臓( )
臓sp r
p o
臓L ink
臓def e
臓J r
臓them e
臓pass ion
臓P en
臓inf o
iz er
臓sh it
臓C ivil
ap se
c re
臓po ly
臓comp onent
臓Char les
臓Ire land
臓Pro v
臓do ctors
臓gr anted
臓pain t
臓hon or
臓sm oke
臓pay ments
臓prim arily
臓King dom
r ich
ate ll
臓de als
臓sched uled
臓fund amental
臓prote in
臓newsp aper
臓cl ients
yth on
臓D ate
h us
臓feed back
臓stret ch
臓c ock
臓hot el
臓Que en
臓su gar
臓j u
臓mil k
臓appro val
臓L ive
臓equival ent
ef ully
臓ins ert
z ona
臓ext ension
d ri
J ohn
臓acc omp
S m
臓F und
臓const antly
臓` `
臓gener ated
臓A ction
臓P sych
臓T ri
臓recogn ize
臓v ary
ph a
臓R a
d f
et ch
臓Sov iet
Tw o
臓pattern s
臓prof ession
an ing
T ime
臓L im
臓col ors
臓A z
臓T R
臓inf ect
臓phen omen
臓she ll
Al so
臓put s
臓del ivery
臓bro wn
臓process ing
臓light s
ess age
臓Bro ok
臓A ud
l ation
臓indust rial
L ike
臓B razil
rou s
ES S
臓L uc
臓some how
臓8 5
臓pro port
臓polit icians
臓indic ate
臓h ole
臓techn iques
臓compet itive
臓ph r
臓v o
ist ent
臓D ream
臓camp us
臓aspect s
臓help ful
臓sh ield
or se
臓trig ger
m al
臓5 8
臓t ort
臓person ally
臓t ag
臓keep s
臓V ideo
臓ben ch
臓g ap
a ire
臓e ast
臓rec overy
per ial
臓prof it
臓M ic
臓5 7
臓col on
臓strong ly
st yle
臓alleg ations
h an
臓rep orters
j o
r ine
arg et
and al
臓0 3
臓fl ash
tr ans
臓str ict
臓park ing
臓Pak istan
臓l i
臓we ird
臓E ric
臓reg ions
臓J un
臓int ellect
臓W H
od ing
rib utes
up id
臓T it
臓f inger
or ia
臓e lev
臓F ield
臓con clusion
; ;
臓feel ings
臓ext ensive
臓m ixed
臓ne uro
v y
臓har ass
臓C irc
ou ch
臓territ ory
臓success fully
M ar
臓ing red
臓overw hel
臓l ayer
V iew
臓all ies
ill ance
臓Th ree
臓b unch
臓norm ally
臓net works
臓sac r
臓C IA
b les
臓ch ose
臓opp onents
臓regard less
臓fr anch
臓pre f
臓P o
臓br idge
ann a
臓Sil ver
臓w age
p age
ri or
臓rad ical
臓L ittle
臓man ip
臓secret ary
臓g ang
D R
F A
臓dec ent
臓Sp irit
臓un cle
臓Develop ment
臓invest ors
臓wall s
臓pub lish
臓gener ate
iss ions
c ar
臓prom ote
臓cut ting
臓che st
臓drink ing
臓collect ed
臓7 2
臓hop ing
臓em br
gor ith
臓war ned
臓instruct ions
O G
臓D id
臓Ag ency
臓g ear
臓critic ism
臓F urther
臓ut il
ann y
R ed
臓coun sel
臓As ian
臓redu ction
p ool
臓teach ing
臓deep ly
i y
臓estim ates
臓cho ices
臓perman ent
in em
ke l
臓f asc
p se
f ile
臓L ow
臓P erson
臓t ournament
st al
臓m el
U ST
臓R ay
az i
V al
臓cont ained
臓H olly
臓w ake
臓reve al
臓process es
臓IS IS
臓0 9
臓bl ind
臓ste el
臓B ad
臓care fully
app y
ro it
臓g aming
臓hous es
臓C oll
臓tr uck
er m
臓sc ored
臓occ as
ret urn
b ound
v ar
臓sh arp
臓af raid
臓E X
am ber
c ific
臓sche me
N C
臓Pol it
臓decl ine
臓199 8
臓pus hing
臓poss ession
臓priv ile
臓teacher s
臓y ield
H A
臓Dav is
it led
#### ####
臓r ig
臓D aniel
ac on
臓h ide
ut en
臓colle agues
臓prin ciples
臓l oud
臓s in
臓Dem on
臓st one
臓0 2
臓t aught
臓ter rible
臓st uck
臓Pol icy
te en
臓implement ation
臓B BC
臓AP I
臓whe el
all as
臓ch ampions
ol ars
play er
臓repeated ly
臓St ill
臓lik es
ast y
es ter
臓Cath olic
R L
臓b ath
臓no ise
t itle
臓n orthern
P art
臓mag n
臓f ab
臓As h
臓dis pl
臓tick et
臓m urd
臓along side
臓Mus ic
臓r iver
臓Ste el
臓C L
臓Pl ayer
臓M ult
ow ing
re p
s ize
臓t ur
臓Georg ia
isc al
ra ction
臓c able
臓5 9
臓w ins
臓up coming
臓surv ive
臓ins pired
臓Educ ation
臓stat istics
臓F oot
iam i
臓y ellow
臓P age
. -
臓H as
臓ur ban
臓a x
es sel
\ "
臓quarter back
臓reg ister
臓Lab or
臓ab ilities
臓F amily
臓var iable
臓Pr ice
臓cont em
臓th in
臓E qu
d ata
臓g otten
臓const it
臓as ks
臓t ail
臓exc iting
臓E ffect
臓Sp anish
臓encour age
ins on
臓A h
臓commit ment
C S
臓r ally
臓: :
臓subs id
臓sp in
臓capt ured
201 8
臓inn oc
臓alleged ly
臓C ome
臓art ists
臓N umber
臓elect ronic
臓reg ional
ap es
臓w ra
臓my th
pr ise
臓M iller
臓C reat
臓Ep isode
b ell
臓direct ed
臓ext ract
臓s orry
臓v ice
ag ger
臓Su pport
臓6 6
臓I ron
臓wonder ful
臓g ra
N et
ion e
E ng
臓sh ips
ik es
臓K evin
it ar
臓activ ists
tr ue
臓Ari zona
ent h
臓Des pite
臓S E
臓ha bit
ern el
臓in qu
臓ab ortion
臓v oid
臓expl icit
臓eng aged
臓ang ry
臓r ating
臓fr ag
b ro
ick ing
d ev
臓wor ried
臓ob ser
臓ap artment
臓G T
臓est ate
臓Const itution
em on
臓S now
臓count y
臓dis ag
臓Step hen
臓imm igrants
w ind
臓N ations
臓fol ks
O ut
臓g all
臓target ed
臓st ead
臓B on
臓L ib
臓inform ed
臓12 0
ch ain
idel ines
or ough
臓dri ven
臓regular ly
臓bas ket
臓princ iple
oc ument
臓st un
ib ilities
臓Rom an
臓Ab out
臓al ert
臓democr acy
臓represent ed
H S
c ers
p arent
Ar t
p ack
臓di plom
re ts
臓N O
臓capt ure
臓Ad v
摩 垄
臓announce ment
臓L ear
臓h ook
臓pur s
臓S uch
臓C amer
臓refuge es
臓V e
P ol
臓recogn ized
l ib
臓had n
A ss
臓pil ot
us hing
臓return ing
臓tra il
臓St one
臓rout ine
臓cour ts
臓des per
臓friend ly
臓It aly
臓pl ed
臓breat h
臓stud io
N S
臓imp ressive
臓Afghan istan
臓f ing
臓d ownt
ink ing
臓R og
i ary
col or
se x
ar on
臓f ault
臓N ick
D own
臓R ose
臓S outhern
X X
is odes
L ist
6 00
臓out come
er r
臓else where
臓ret ire
臓p ounds
臓Gl obal
Pe ople
臓commun ications
臓lo an
臓rat io
臓Em pire
臓g onna
臓inv ent
D F
臓19 70
臓Comm on
p at
臓prom ised
臓d inner
臓H om
臓creat es
臓oper ate
ver ty
臓J ordan
et ime
臓sust ain
R eg
臓incred ible
im a
臓war rant
臓m m
A tt
臓law suit
臓review s
it ure
臓S ource
l ights
臓F ord
臓6 3
g roup
st ore
臓feat ured
臓fore ver
臓po verty
臓P op
臓C NN
az z
ab is
ach ing
臓l aid
臓Su pp
臓fil ter
en a
臓Commun ity
臓creat ures
u ction
臓R oyal
臓associ ation
臓Con nect
臓Br ad
芒母 莫
l ers
the re
臓G i
臓val uable
AC K
臓T aylor
臓l iquid
臓Att orney
臓Car l
臓F inal
ag a
臓Wil son
B ecause
臓Prof essor
ak a
臓incred ibly
r ance
! )
R ef
s k
臓sol utions
臓atmosp here
臓bl ame
um es
臓N ob
C A
um ps
r ical
臓Put in
臓D est
or ic
臓P A
臓respect ively
w an
臓fif th
芒 摩垄
臓C ry
臓govern or
res ident
臓purch ased
臓h ack
臓int ense
ob s
臓orig in
臓def ine
臓care ful
** *
臓should er
Cl ick
臓t ied
臓dest ruction
ou red
臓no body
臓h o
臓Ex per
臓t ip
" ;
臓techn ique
臓j ur
臓P ok
b ow
臓leg end
臓acc ord
臓bus y
臓Int el
臓h ang
ak i
. ]
芒蘑亩芒蘑亩 芒蘑亩芒蘑亩
臓sur gery
臓rep rodu
臓un iform
臓scen es
c ode
臓6 2
l isher
臓H ave
ph ia
臓cry pt
臓rec on
臓sc ream
臓adop ted
臓sc ores
N e
臓It alian
in cluding
B O
臓indic ated
臓ent ertain
G u
T ext
i el
臓tw enty
臓eng age
off s
臓Pac ific
臓sm ile
臓person nel
臓to ler
臓do ors
臓t one
臓mach ines
臓ent ering
ten ance
C O
臓Jer sey
臓fore st
臓hor se
臓compl aint
臓Spr ing
y o
臓Pl us
ed ing
臓Ret urn
qu arters
ial s
c ow
臓acad emic
臓f ruit
臓199 6
og ether
臓w ine
臓pur su
臓Ste ven
臓lic ens
Wh o
臓clot hes
re ction
臓squ ad
臓st able
臓r aw
z ens
St ar
ut ies
anc er
臓ke ys
臓M u
臓compl icated
ig er
臓Te xt
臓abs or
臓6 8
臓fun ny
臓rel ief
臓L ew
臓C ook
臓ch art
臓draw ing
G E
臓mod ule
臓B ull
I LL
臓s alt
0000 0000
il le
臓res ource
aw ay
adel phia
臓B ru
臓6 7
臓some body
臓particip ate
臓ro se
we red
臓mus cle
臓cons ent
臓contin uing
臓Guard ian
臓Or der
reg on
臓re ar
臓prov ision
臓lik ed
ri ent
臓b ra
Tr ans
臓meet ings
臓to x
臓con vent
臓aut o
臓rec ording
臓So ft
00 1
臓R oll
臓program ming
臓p ic
臓prov ed
臓st ab
臓A st
臓ca ption
ul ating
臓Att ack
臓new ly
臓199 7
f r
臓dis cipl
臓Gree k
臓ed ition
臓Do es
臓B ox
if le
ack et
臓pass es
臓gu est
臓ac celer
it als
U D
臓aut hent
臓R est
ov al
t a
u ine
臓arm or
臓T own
臓comp at
臓inc hes
Des pite
臓ass ign
he rent
臓prep are
臓M eg
oc key
臓dep ends
臓track s
w atch
臓l ists
臓N orthern
臓al ter
re c
臓E astern
臓cond em
臓every where
? '
臓aff ili
臓f ought
": {"
臓m ac
it arian
臓sc ope
臓A L
aw s
ar ms
臓qu e
臓enjoy ed
nes ota
臓agg ressive
臓St ory
臓I V
臓rec ipe
臓rare ly
臓Med ical
val ue
ang el
ay ing
omet hing
臓sub section
臓s outhern
臓frequ ency
re te
roll ed
ult s
臓N ic
臓beh alf
臓sequ ence
ab et
臓controvers ial
臓comp rom
臓work er
臓main ly
臓al gorith
臓M ajor
or ce
g ender
臓organ ized
臓f ake
臓conclud ed
臓E D
臓Ex ec
r age
臓ch ances
ber ry
臓Tr ad
臓config uration
臓withd raw
臓f ro
ud es
臓Bro ther
臓B rian
臓tri es
臓sam ples
臓b id
臓Gold en
臓phot ograph
if est
臓D O
臓Par liament
******** ********
R em
臓cont est
臓sign ing
p x
臓Z eal
芒亩蘑 芒亩蘑
E ar
臓ex it
Be fore
臓Cor por
n ull
mon th
臓rac ial
ott ed
臓V eg
臓Re uters
臓sw ord
ps on
臓Rom ney
a ed
臓t rib
臓in ner
臓prot ocol
臓B i
臓M iami
ever al
p ress
臓sh ipping
臓Am endment
臓How ard
con nect
臓D isc
臓J ac
iam ond
臓There fore
s es
臓Prin cess
臓US B
臓An th
臓surve illance
臓ap olog
臓6 1
ow a
臓f ulf
j s
臓l uck
ust ed
臓脗 搂
n i
臓ant icip
em an
臓win ner
臓sil ver
ll a
ic ity
臓unus ual
臓cr ack
臓t ies
e z
臓pract ical
臓prov ince
臓Pl ace
臓prior ity
IC E
臓describ es
臓br anch
F orm
ask a
miss ions
b i
臓p orn
臓Tur k
臓ent hus
臓f ighters
臓0 8
臓Det roit
臓found ation
av id
A re
臓jud gment
cl ing
臓sol ve
臓Des ign
W here
hes is
臓T ro
a fter
臓ne utral
臓Palestin ian
臓Holly wood
臓adv is
臓N on
y es
ol is
臓rep utation
臓sm ell
臓b read
臓B ul
臓Be ach
臓claim ing
臓gen etic
臓techn ologies
臓upgr ade
row s
臓develop er
臓J osh
臓Dis ney
erv ed
ip al
臓un ex
臓bare ly
t hen
臓P ub
臓ill ness
et ary
臓B al
臓p atch
臓but t
臓st upid
臓D og
臓D allas
f ront
ie ce
臓prot ests
臓ch at
oen ix
臓w ing
臓par liament
臓7 7
ose xual
臓re nder
pt ions
臓Co ast
os a
臓G reg
h op
臓Man agement
臓bit coin
臓rec over
臓incor por
or ne
臓Us ing
臓pre ced
臓threat ened
臓spirit ual
臓E vent
臓F red
臓advert ising
臓improve ments
臓C ustom
臓er rors
臓sens itive
臓N avy
臓cre am
L ook
臓ex clusive
臓comp rehens
臓de leg
臓con ce
臓rem em
臓struct ures
臓st ored
N D
臓1 000
U P
臓B udd
A F
w oman
臓Acad emy
冒 艁
se a
臓tem porary
Ab out
es ters
臓tick ets
臓poss ess
in ch
o z
臓l a
臓contract s
臓un p
臓c ig
臓K at
ult ural
as m
臓mount ain
臓Capt ain
St ep
m aking
臓Sp ain
臓equ ally
臓l ands
at ers
臓reject ed
er a
im m
ri x
C D
臓trans action
g ener
less ly
臓| |
臓c os
臓Hen ry
臓prov isions
臓g ained
臓direct ory
臓ra ising
臓S ep
ol en
ond er
臓con sole
in st
臓b om
臓unc ertain
1 50
ock ing
臓meas ured
臓pl ain
臓se ats
臓d ict
S L
af e
臓est imate
iz on
at hered
臓contribut ed
臓ep isodes
omm od
G r
AN T
臓6 9
G ener
臓2 50
vious ly
rog en
臓terror ism
臓move ments
ent le
oun ce
臓S oul
臓pre v
臓T able
act s
ri ors
t ab
臓suff er
臓n erv
臓main stream
臓W olf
臓franch ise
b at
臓dem ands
臓ag enda
臓do zen
臓clin ical
iz ard
臓O p
t d
臓vis ited
臓Per haps
臓act or
臓de lic
臓cont ribute
臓in ject
臓E s
ac co
臓list ening
臓con gress
epend ent
臓prem ium
臓7 6
臓Ir ish
臓ass igned
臓Ph ys
臓world wide
臓narr ative
ot ype
m ont
b ase
臓B owl
臓Administ ration
臓rel ation
臓E V
C P
臓co vers
臓7 8
臓cert ific
臓gr ass
臓0 4
pir acy
ir a
臓engine ering
臓M ars
臓un employ
臓Fore ign
st ract
臓v en
臓st eal
臓repl ied
臓ult imate
臓tit les
d ated
臓j oy
a us
臓hy per
ak u
臓offic ially
臓Pro duct
臓difficult y
per or
臓result ed
rib ed
l ink
wh o
~~ ~~
臓Spe ed
臓V iet
W ind
臓Bar ack
臓restrict ions
臓Sh are
臓199 5
ition ally
臓beaut y
op t
臓m aps
臓C R
臓N ation
臓Cru z
W ill
臓electric ity
臓or g
臓b urd
臓viol ation
臓us age
臓per mit
臓Ch ron
臓F ant
臓n aturally
臓0 7
臓th rown
臓Aw oken
臓al ien
臓Her o
臓K ent
臓R ick
ri ke
臓p ace
}, {"
G L
臓po ison
臓T ower
臓form al
al ysis
臓gen uine
臓k il
a ver
臓proced ure
臓Pro p
intend o
臓M ain
as ant
臓tr ained
G ame
臓L oad
臓M A
臓cru cial
臓le ts
臓F R
臓ch ampion
1 01
臓Con ference
臓writ ers
臓connect ions
臓o kay
ir ms
臓R and
臓enc ounter
臓B uff
臓achie ved
臓che cks
isc ons
臓assist ant
臓when ever
臓A ccess
臓U r
b in
臓cl ock
is p
op her
臓b orrow
臓m ad
臓person ality
on ly
IS T
ab ama
臓g ains
臓common ly
臓ter r
臓hyp ot
臓re ly
臓t iss
iscons in
臓rid ic
f unction
臓O regon
臓un com
r ating
el and
臓N C
臓m oon
ann on
臓vulner able
ut ive
脗艂脗艂 脗艂脗艂
臓Rad io
臓w estern
se ct
臓T ony
臓occ urs
臓O s
臓H on
脙 艃
臓v essel
臓Scot land
臓discrim ination
臓subsequ ent
st ring
臓fant asy
臓Sh adow
臓test im
W E
it i
r as
臓bo at
臓mar ks
臓ord inary
臓re n
臓represent ative
臓pet ition
臓7 3
臓ad venture
臓ign ore
臓Phil adelphia
臓S av
V P
臓fact ory
臓t asks
臓dep ression
z ed
................ ................
臓St orm
臓c ogn
臓elig ible
臓redu cing
v ia
臓0 5
臓stri king
臓doll ar
h o
O V
臓instr ument
臓philosoph y
臓Mo ore
臓A venue
臓rul ed
臓Fr ont
IN E
臓M ah
臓scen ario
臓NAS A
臓en orm
臓deb ut
臓te a
T oday
臓abs ence
S im
臓h am
le ep
臓t ables
臓He art
M I
K e
re qu
V D
m ap
臓chair man
臓p ump
臓rapid ly
v i
臓substant ial
E P
d es
ch ant
ili pp
臓S anta
ri ers
anche ster
L oad
臓C ase
臓sa ving
臓7 4
臓A FP
er ning
oun ced
臓Min nesota
臓W as
臓rec ru
臓assess ment
臓B ron
U E
臓dynam ic
臓f urn
ul ator
臓prop ag
h igh
臓acc ommod
臓st ack
臓S us
w rit
臓re ven
臓God d
臓Zeal and
ab s
臓br ut
臓per pet
h ot
臓hard ly
臓B urn
茫膜 鹿
臓st y
臓trans actions
臓g ate
臓sc reens
臓sub mitted
臓1 01
臓langu ages
ugh t
em en
臓fall s
臓c oc
膜 卢
臓stri kes
p a
臓del iber
臓I M
臓rel ax
ann els
臓Sen ator
臓ext rem
臓} ,
臓De b
臓be ll
臓dis order
c ut
臓i OS
臓l ocked
臓em issions
臓short ly
" ]
臓Jud ge
臓S ometimes
臓r ival
臓d ust
臓reach ing
F ile
脗炉脗炉 脗炉脗炉
ino is
臓J ason
臓s atell
are t
臓st ations
臓ag ric
臓Techn ology
com es
臓Un fortunately
臓Child ren
臓appl ies
ast ed
臓an ger
ail ability
臓Dam age
臓comp are
臓Stand ard
臓aim ed
臓B a
angu age
臓reg ulation
臓j ury
臓air port
臓se ctions
臓Pr ince
em ed
臓medic ine
臓h itting
臓sp ark
ol ves
臓ad s
St ate
臓food s
臓repl acement
臓ch icken
臓low est
臓mind s
臓invol ves
u i
臓arr ang
臓proced ures
臓Wh ich
ivers ary
臓b ills
臓improve ment
臓in ev
臓expect ations
臓intellect ual
臓sp aces
臓mechan ism
2 50
bre ak
臓Z e
臓T enn
臓B alt
臓bar rel
臓stat ic
man n
Pol ice
臓t ips
臓hand ling
c us
od ed
il ton
ir y
臓journal ists
our se
臓com ic
臓nom ine
IT Y
臓vers us
臓lo op
臓sur f
臓Ind ust
臓Hun ter
臓belief s
is an
臓set up
臓bre w
im age
臓comput ers
f ol
} ,"
臓Med al
臓tax p
臓display ed
臓g rav
臓f iscal
M on
臓Mos cow
臓K ong
臓Cent re
臓camer as
臓Mr s
臓H ay
臓a ver
臓K elly
p y
臓require ment
臓ent itled
omb ie
臓sh adow
ag ic
臓A k
臓el ite
臓div ided
臓head ing
臓cop ies
臓loss es
臓v it
k ed
臓B ry
臓an s
臓Ste am
臓rep orter
he im
臓It em
臓super ior
d on
ere nt
脙 露
臓therap y
臓pe ak
臓Mod el
臓l ying
臓g am
z er
r itten
臓respons es
臓consider ation
臓B ible
臓l oyal
臓inst ant
臓p m
臓Fore st
脙 录
臓ext end
臓conv icted
臓found er
臓conv in
臓O ak
che ck
臓sch olars
p ed
臓over se
T op
c ount
臓Ar k
脗 路
臓0 6
臓L A
m d
臓Lat in
im ental
臓C PU
臓subst ance
臓minor ity
臓manufact uring
E r
ocol ate
臓att ended
臓Man ager
r ations
臓appreci ate
om y
GB T
id ency
B L
臓guarant ee
pos ition
臓o cean
clud e
臓head ed
臓t ape
臓lo ose
臓log ic
臓pro ven
臓sp ir
臓ad mit
is a
臓investig ate
臓199 4
sy lv
臓L ost
c est
臓7 1
臓request ed
臓wind ows
臓Pok 脙漏
臓With out
M et
臓behavi our
臓read er
臓h ung
臓Ke ep
臓ro les
臓implement ed
臓bl ank
臓serv es
臓J ay
臓c ited
臓F riend
prof it
ap on
臓rep air
it em
arr ass
臓crit ics
ad i
臓F ather
臓sh out
臓f ool
臓8 8
臓produ cing
臓l ib
臓round s
臓circ le
臓pre par
臓sub mit
臓n ic
mor row
茫磨 芦
U nder
臓v ital
ater n
臓pass word
臓public ation
臓prom inent
臓speak s
臓b ars
臓de eper
臓M ill
port ed
臓w id
臓but ter
臓sm oking
臓indic ates
K ey
rop ri
臓F ile
all ing
ast ing
臓R us
臓ad j
臓7 9
av al
臓pres um
bur gh
on ic
臓f ur
臓poll s
ik a
臓second ary
臓mon ster
ig s
臓Cur rent
E vent
臓owners hip
end ar
臓arri ve
臓T ax
臓n ull
臓Pri v
臓th ro
臓k iss
c at
臓up set
ang le
it ches
ect or
olog ists
臓Gal axy
臓cor ruption
臓h int
ent er
臓H ospital
臓great ly
臓beg un
es y
臓so il
臓Ant on
臓main tenance
茫磨 漏
臓do zens
臓human ity
臓Al abama
臓r om
w orth
ap ing
sylv ania
l ah
臓g athered
G A
臓attack ing
f ound
臓Squ are
臓ar bit
ict ions
臓W isconsin
臓d ance
臓S aint
arch y
臓base ball
臓contribut ions
臓liter ature
臓ex ha
per ty
t est
臓b ab
臓contain er
let ter
臓fall en
臓webs ites
臓bott le
臓S ac
臓bre ast
臓P L
臓veter an
臓interview s
臓A le
臓b anned
eng ers
臓Rev olution
in th
臓conc erning
IV E
臓exp enses
臓Matt hew
臓Columb ia
d s
ist ance
臓ent ity
.. ."
臓rel iable
臓par alle
臓Christ ians
臓opin ions
臓in du
l ow
臓compet e
臓th orough
臓employ ed
臓establish ment
ig en
臓C ro
臓lawy ers
臓St ation
T E
臓L ind
臓P ur
it ary
臓effic iency
芒蘑 牟
臓L y
臓m ask
臓dis aster
臓ag es
ER E
es is
臓H old
臓cas ual
b led
臓en abled
臓En vironment
臓Int elligence
i per
臓M ap
臓B E
臓emer ged
is dom
臓c abin
臓regist ration
臓fing ers
臓ro ster
臓fram ework
臓Do ctor
et ts
臓transport ation
臓aware ness
H er
臓attempt ing
O ff
臓St ore
脙磨脙膜脙磨脙膜 脙磨脙膜脙磨脙膜
臓K now
臓def ence
臓sc an
臓T en
臓Ch air
臓P H
臓Atl anta
臓fuck ing
臓ans wered
b n
臓K ar
臓categ ories
臓r ational
臓c ust
臓rob ot
臓correct ly
臓g if
臓graph ics
m ic
臓ground s
臓O pp
i ate
臓dist ributed
臓san ctions
臓challeng ing
ut o
臓ingred ients
臓inv ited
臓found ed
臓Re qu
d ed
臓b owl
臓brother s
臓H a
I O
臓w ages
im ore
oc ial
臓se ed
ative ly
臓address es
臓I owa
ab eth
臓att itude
is d
ch ild
臓m ole
臓disco very
y ard
B r
臓8 2
臓suppl ies
ell ing
臓dist ingu
C R
臓re cept
臓 vert
臓sw im
b ec
d oor
臓Y eah
臓g al
臓inter act
臓E SP
臓C S
amp s
臓convin ced
臓object ive
臓dis h
臓Phot os
l ad
臓downt own
o il
in ction
臓to morrow
臓C OM
臓surv ival
sh ot
臓sett lement
C ons
臓X box
int erest
臓S M
arg o
en ess
臓eth nic
b ered
M in
臓T ok
臓inc ent
臓Comm and
臓main tained
臓break s
br idge
at ar
ag g
臓F inally
un icip
臓O nt
le ft
臓recogn ition
臓* /
臓P ers
臓we lf
臓address ed
臓K ansas
臓vir us
臓where as
臓p apers
ram s
臓Min istry
臓ple asure
臓acqu ired
臓d uration
j pg
臓cal m
臓N HL
臓burn ing
臓fold er
ick ed
臓P y
臓Ill inois
Cl ass
臓Godd ess
臓perform ing
臓welf are
j ar
In ter
臓l in
臓enh ance
臓not ion
f are
yp es
臓Are a
臓cann abis
臓Die go
f s
臓M anchester
com m
in ite
臓cover ing
臓S ound
臓19 60
臓8 4
e lect
z ing
臓citiz en
臓ph ones
臓r aid
臓ign ored
臓Ob ject
臓u pload
c ard
臓mod ified
臓room s
ia h
r ange
he ast
ach us
臓suggest ing
芒蘑 沫
gr ade
E l
臓clot hing
臓r h
臓H an
un ity
en cing
臓Aust in
sec ution
t ra
d em
臓Q ual
臓he aven
臓st ages
臓w edd
pl us
ific ial
臓Im m
臓H o
iet ies
臓phr ase
臓br ill
act ory
臓prov iders
臓sil ence
臓a er
臓A I
臓Ad venture
臓platform s
臓demonstr ated
臓inter f
ing ton
臓r aces
臓gr ade
ult ane
臓Th rough
f alse
臓b ow
臓A B
臓fl avor
臓histor ic
g ov
臓col our
臓view ed
臓Em ail
el come
臓inter vention
臓d iversity
臓period s
臓re verse
臓V ery
臓qu ote
臓Le ft
th rough
臓sc rew
臓land ing
臓p ill
臓w et
臓prot esters
臓repe at
av ed
er k
臓sal ary
臓Penn sylvania
St ill
臓may or
臓kit chen
臓feat uring
臓M useum
臓T ournament
臓F al
臓ser vers
U C
臓any body
im g
臓Tr ade
ixt ure
the less
臓fin ance
臓cl osing
臓Pat ri
i ac
ab el
臓> >
or ous
臓f irms
sc reen
un a
臓emb arrass
ul se
臓let ting
臓th rew
ile y
臓ch annels
l an
臓Veg as
臓se ar
臓fant astic
ar re
uzz le
臓D er
Th ose
臓sw ing
臓she et
ind ex
co ver
og an
臓vari ables
臓Te ch
臓sp oken
ac hel
臓D a
臓Mount ain
臓load ed
臓foot age
vers ion
臓un l
臓Ph oenix
臓throw ing
臓f iring
臓track ing
臓w idth
臓strugg ling
ro oms
ot ion
臓month ly
臓Ser ver
臓egg s
op en
M C
臓199 3
臓h ired
臓stay ed
臓All en
臓st ro
臓9 8
st ep
臓Turk ish
臓fab ric
ist ing
臓D om
臓d ates
臓pr on
臓basket ball
臓l ucky
臓Arab ia
臓assum ed
est y
臓aff airs
臓gl ad
臓Ind eed
臓F A
臓W ord
臓jo ining
if ice
p read
ir ts
臓Se lect
臓pop ulations
aw are
臓n ose
臓compl aints
st art
臓sc oring
Th anks
臓min ing
臓visit ors
S H
臓dam aged
臓character istics
臓P ent
D C
臓8 3
臓S ix
r ates
臓fl ags
臓B rew
d og
M ark
// //
臓exec ution
臓j oke
ph ones
臓testim ony
臓ob st
Q L
臓C ut
臓stud ied
臓N intendo
ick et
臓N BC
臓l ad
臓B ra
臓M oh
臓k ernel
臓overwhel ming
臓ag ed
臓applic able
臓C ond
臓road s
臓Bl ock
m ade
od ge
臓comm ands
臓off ices
vel and
臓t ut
臓rece iver
臓F ro
臓sho pping
臓i P
臓St re
臓A BC
臓entertain ment
臓B ow
ort ed
M c
臓read s
gr ad
臓Col lect
臓芒 莫拇
臓Cap ital
eder ation
臓employ er
臓involve ment
臓anx iety
al ia
臓ro of
臓Am ong
臓Democr at
臓stat s
臓V ill
臓const itutional
臓refer ring
itt y
臓tack le
out ube
臓back ed
臓H ong
臓Bro ad
臓e le
臓O tt
臓199 2
h our
achus etts
C al
臓defe ated
臓8 1
es p
臓seem ingly
w as
臓J enn
臓K urd
臓g ene
臓disc ount
R et
EC T
( );
臓club s
臓s id
臓M arsh
Che ck
臓p p
臓E ag
ides pread
臓be ings
F T
臓introdu ction
臓Ch ange
AR D
臓1 10
ad ows
ier ce
臓me al
a uthor
臓B ang
lah oma
臓r anks
201 1
?? ??
m ax
臓coll apse
臓op ens
臓e cho
臓s oph
臓rac ist
臓enorm ous
臓w aves
臓t ap
臓comprehens ive
. --
臓R oy
臓farm ers
Rel ated
a ired
ron es
臓C rim
臓proport ion
臓design s
臓negoti ations
臓virt ually
臓Bat man
臓war n
臓legit imate
m ate
臓con vention
, ,
net ic
臓S D
臓consist ently
臓compens ation
臓punish ment
臓y e
臓t ie
臓B ureau
ir lf
臓B u
臓A ren
臓Ph ilipp
臓kn ife
臓mem ories
臓R oss
臓ang le
臓8 6
臓Th under
臓re nd
臓T our
臓count s
s ung
臓Im p
臓educ ational
臓access ible
C OM
臓d rew
y er
G l
am ine
OR T
O B
I B
m aster
臓tri als
og y
h ar
臓Tr ust
臓prefer red
irlf riend
臓N ev
臓b in
臓c ow
P age
臓sign ature
臓B L
7 00
臓ret ired
臓by tes
臓neigh b
臓Leg end
臓dev ast
臓suspect ed
is ons
臓Pok脙漏 mon
sc ale
臓cap abilities
臓re vel
臓che ese
d y
igr ant
臓fail ing
b its
臓Her oes
臓G host
臓S cient
臓appoint ed
ur i
臓inst itution
臓expand ed
g reg
臓monitor ing
臓p odcast
臓coal ition
臓9 6
J o
臓st olen
臓S ab
臓stop s
臓hol iday
臓int r
C ar
Bl ack
臓L GBT
臓war ming
臓And erson
臓8 9
臓produ cer
M ed
臓accur acy
臓Mar vel
iz abeth
臓Pat rick
m ony
臓min i
ac les
臓over t
the y
臓members hip
臓V en
臓ex ch
臓rem oval
臓D ave
T Y
m ad
臓F ind
臓ad equ
臓e c
臓te eth
臓emot ion
臓per m
臓sole ly
d b
臓extra ord
IG HT
c al
臓gu idelines
臓d ying
臓susp ended
臓Prem ier
臓Anth ony
el ve
臓d ad
臓E th
臓Foot ball
臓abandon ed
臓< <
臓m arch
臓hor ror
芒蘑娄 "
臓child hood
臓campaign s
臓l unch
臓Al bert
bl ock
芒母莫 芒母莫
ound ing
臓b one
or gan
ad ers
臓Fl ash
臓Dri ve
臓ton ight
臓w ars
臓F L
臓form ation
con st
New s
臓com pe
or ious
臓St aff
臓discuss ions
臓Prot ection
臓J am
臓crit eria
臓install ation
臓accompl ish
iz za
臓pub lisher
臓resc ue
臓T ry
U LL
臓S om
臓H op
ore t
th s
ord on
臓p ocket
臓In v
Down load
臓Cr ime
臓b ene
臓Gu ide
臓As sembly
臓param eters
I E
臓Alex ander
臓conc ert
臓Sc he
臓sh oes
臓vis iting
臓rec all
臓b ub
臓r ural
臓conc rete
臓R os
N ext
R uss
臓lo ans
臓Sh ield
臓tre m
hem at
k g
臓Har ris
is ition
臓M ove
臓F C
臓f ate
臓Ch o
臓t ired
臓princ ipal
h ist
ien ces
ath y
臓se vent
臓m ood
臓strateg ic
臓dise ases
臓for um
臓tem por
臓head quarters
P ar
ig e
fl ix
臓gu itar
臓9 4
On ly
臓rele ases
ro ph
================ ================
臓6 00
臓Contin ue
ig ate
臓C rit
sy stem
臓dis abled
臓unex pected
ith ub
臓uncle ar
臓E st
臓contr ad
臓strateg ies
vent ures
臓pass age
AM E
臓impro ving
臓reve als
臓decre ase
ov a
臓ann oy
臓Sh ort
臓L ibrary
臓cy ber
n ell
臓H ur
臓C B
臓phot ograp
U I
臓s ed
G e
臓8 7
臓d iverse
臓encour aged
臓cons piracy
臓bird s
臓oper ator
臓hand ful
臓class ified
? )
臓dram atic
臓investig ators
it o
臓w idespread
臓R oom
-------------------------------- --------------------------------
臓collect ive
臓journal ist
St ring
臓temper atures
il a
臓gu id
臓ins pect
臓miss ile
臓May or
臓man ual
臓sim ultane
臓rat ings
臓su ck
臓9 7
臓univers al
臓ph arm
臓dis rupt
ian o
A V
臓f t
臓stat ist
old s
臓Walk er
ph p
臓under t
臓L as
ish op
nt il
res hold
臓Whe ther
M s
臓den y
臓Cl oud
臓prov ider
臓surv iv
臓Up date
h as
臓mist akes
ch arge
pl ed
r ity
臓n ode
臓Mass achusetts
ool s
lic ation
臓f ails
em ale
or i
back s
臓sh irt
臓' '
臓N AT
臓wat ers
els on
臓e ase
臓sc ar
臓cont ents
m ind
臓cont ribution
臓sh r
臓hand ed
臓st ability
臓tra ve
E m
臓mir ror
12 3
臓we igh
臓f iction
ou ver
ist ant
r ition
臓F ed
臓phys ically
臓st ake
臓Art icle
臓Ar c
臓Lew is
臓M ind
臓demonstr ate
臓prof its
v ision
om ic
ol id
臓batt les
臓dri ves
臓eas tern
臓S ony
!! !
ar ation
v ard
臓G L
port ation
臓9 2
臓law makers
臓protect ing
臓E PA
臓y eah
臓sh ame
ol ph
e ven
x it
臓att ach
臓represent ing
臓ob s
臓Ut ah
iff s
臓Fre edom
脙 鲁
A K
臓inc idents
it age
臓view ers
c d
臓m ouse
臓cl ar
臓accord ance
臓b ot
c or
臓Sum mer
he ld
臓innoc ent
臓initi ative
ol s
________________ ________________
臓sp ots
p ace
臓convent ional
臓corpor ations
臓block ed
H D
at tered
臓ref ers
臓bu ck
臓Dig ital
12 0
臓top ics
T F
脛 模
br id
re ement
臓under lying
臓M ember
臓investig ating
臓pregn ancy
臓touch down
臓B and
臓Call er
臓inst ances
P P
w a
G ood
臓199 1
臓C old
臓fear s
臓rem arks
抹 拇
at al
臓m it
臓exper iments
i pt
Col or
ind u
Up date
臓9 3
A g
臓 氓
anc ouver
B oth
臓jud ges
Ob ject
臓st ere
umb n
臓particip ation
臓St ars
臓J ere
臓week ly
臓B an
臓convers ations
臓P itt
u z
臓Indian a
臓K ick
臓inf ection
臓hero es
臓sett led
臓stri p
臓h al
臓d ump
臓S ci
臓l es
臓ref erences
臓U RL
臓Br idge
臓want ing
For ce
臓ex clus
Me anwhile
m n
臓g entle
m aker
sen al
臓G ro
ou ri
臓R ain
臓All iance
臓l ift
el a
S D
臓Cle veland
臓rank ed
臓st adium
臓dead ly
盲 赂
臓r iding
ar ia
臓Ar mor
臓document ation
臓Gree ce
ree k
臓l ens
臓S a
臓g ross
臓E mer
ag ers
臓D ub
臓R h
臓AM D
臓arri val
臓des ert
臓supp lement
臓Res p
臓kn ee
臓marg in
f ont
og g
201 0
臓P ir
臓P rom
iv als
臓int ake
臓different ly
ug s
臓b its
clud ed
臓search ing
臓D u
um ble
臓function al
臓Balt imore
臓C ould
臓des ired
臓circ uit
臓L yn
臓G O
臓F alse
re pre
' :
alt ies
臓min im
臓dro ve
臓Sh ould
臓h ip
臓pro s
臓ut ility
臓N ature
臓M ode
P resident
o pp
r at
form ance
臓concent ration
臓f ont
臓B ud
臓am id
臓re vers
臓M L
B ar
臓inter action
臓jur isd
臓spell s
d ep
f il
臓civil ians
ut ter
臓Co oper
臓Bel ow
臓ent rance
臓con vert
臓controvers y
ow ered
臓contr ary
臓ar c
臓Exec utive
臓Offic er
臓pack ages
臓prog ressive
w idth
臓reserv ed
v ol
臓Sam sung
臓print ed
臓cent ers
臓introdu ce
臓Kenn edy
臓odd s
臓sure ly
臓independ ence
臓pass engers
repre ne
臓Be h
臓l oves
臓ESP N
臓fac ilit
臓ident ical
臓do ct
臓partners hip
con f
臓H ide
臓conf used
臓C ow
M en
臓w rest
臓Iraq i
臓h oles
臓Stud ies
臓pregn ant
h ard
臓sign als
I X
臓pull ing
臓grad uate
臓nomine e
D ate
臓per mitted
臓芒 膜卢
臓Ok lahoma
St art
臓author ized
臓al arm
臓C os
v an
臓gener ations
c ular
臓dr agon
臓Soft ware
臓Ed ward
臓contro ller
S en
ge red
臓V ik
臓appro ached
Th ank
臓can ce
臓form ula
臓Sm all
臓weak ness
臓r amp
it udes
j ud
臓brill iant
臓acc us
s ource
臓8 00
臓E vil
S w
臓hom eless
we ek
i ens
r ics
臓Th ird
T O
臓organ ic
臓present ation
ag h
臓Down load
v ation
臓as sembly
or able
hold ers
臓Bern ie
臓Hel p
臓t ong
臓F ight
臓be ach
B ook
臓L ic
臓r ush
臓R ound
ou p
臓Mar x
臓calcul ated
臓De vil
臓Sar ah
臓occasion ally
臓bul let
Av ailable
g ate
臓9 1
臓h osp
臓prom ises
臓H IV
臓St adium
臓St ock
臓Corpor ation
g age
N G
臓C redit
臓s ne
ib l
臓acc um
s uch
臓terror ists
臓conscious ness
臓Z h
臓dram a
ool a
pir ation
臓lab our
臓N in
臓ut ter
臓democr atic
臓ass ass
il ation
臓g est
臓ab road
臓met ab
臓s orts
臓fl av
U B
臓m g
臓Not hing
臓O d
臓mus ical
200 9
臓dro ps
oc ated
ater al
0000 00
臓g re
臓equ ality
臓burd en
臓v ig
臓Le ader
-------- ----
臓cere mony
臓f ighter
臓act ors
臓 忙
am an
F i
臓al ign
put er
臓e lder
臓N SA
臓represent ation
臓Ont ario
IT H
usal em
臓harass ment
itz er
臓sy mp
臓box es
臓D R
臓man ifest
at re
臓 ^
臓d ies
le ton
臓miss ions
et he
臓res olve
臓follow ers
臓as c
臓k m
l ord
am med
臓sil ent
臓Associ ated
臓tim ing
臓prison ers
臓K ings
臓F ive
臓tow er
臓appro aches
臓precise ly
臓b ureau
臓M other
臓I ss
臓key board
it ual
臓fund ed
臓stay ing
臓psych ological
臓m ile
臓Le on
臓Bar b
w ill
臓w ider
臓Atl antic
臓t ill
臓R ome
ro t
臓accomp an
臓fl our
ac o
W orld
臓Exp ress
臓Y u
C or
臓ple ased
part y
臓point ing
臓inf lation
臓ro y
臓 ),
ain er
臓wedd ing
orm on
臓requ iring
臓qual ified
臓se gment
EN D
臓s izes
e als
臓cor rupt
ass ador
臓cele b
臓dream s
臓M ess
臓check ing
臓V ersion
臓prep aring
臓act ively
臓D iff
臓l ux
臓W inter
act eria
臓N E
臓dep uty
臓trans gender
臓sum mary
臓in her
er ies
ch ar
臓Y an
臓kn ock
臓P ath
臓l ip
roll er
臓imp ression
臓celebr ate
臓sl ide
臓gu ests
臓cl ip
F S
臓sav ings
臓capt ain
臓leg acy
臓Den ver
臓w ounded
tab oola
AC T
臓purs ue
臓o xy
臓 q
臓sem i
臓N eed
臓Aff airs
臓ob sc
臓check ed
臓d ual
C ode
臓M D
le m
ult y
臓脗 漏
臓El izabeth
臓cent uries
ard ed
s rc
臓ev ident
enn is
at in
臓unemploy ment
臓Mar io
臓int im
Ch rist
臓bi ological
臓sold ier
臓Add ed
臓m ath
臓G il
臓bi as
臓d ating
臓O cean
臓m ice
M us
h ire
臓T es
Ser ver
lim ited
S ize
臓met ers
臓rock et
es see
臓certific ate
臓Iran ian
AS S
臓gr id
D ec
臓ro lling
com mun
臓Swed en
b ury
臓tiss ue
臓rac ism
臓L ocal
臓myster y
臓exam ine
臓st em
臓s its
臓hop ed
ot ing
臓dial ogue
臓pers u
W atch
l ay
M AN
臓ch ronic
臓Port land
mark et
臓S EC
臓paralle l
臓sc andal
臓car ries
臓phenomen on
h uman
ack er
臓O x
臓retire ment
tain ment
ov ie
臓G ear
臓d uties
臓do se
臓sc roll
M B
in f
臓sa uce
臓land scape
red dit
臓Champions hip
臓Red dit
al id
臓co in
臓over s
臓post ing
ab out
臓f el
and y
臓b old
臓focus ing
e ffect
G R
臓de emed
臓recommend ations
臓ste pped
臓vot er
臓De ep
臓Inst agram
臓moder ate
臓Mary land
臓restrict ed
臓M B
臓Ch all
臓to b
臓c ir
臓O cc
臓E ver
臓coll aps
IN FO
= -
臓P ict
臓Acc ount
n c
臓o ught
臓ex port
臓dr unk
( '
臓w ise
臓M ort
ne cess
臓an cest
臓Inc re
臓frequ ent
m ir
臓interpret ation
臓depend ent
臓co ins
臓B ol
V ideo
臓Just in
臓fat al
臓cook ing
臓conf usion
ip her
臓cust ody
臓Mor gan
om ach
臓Govern or
臓restaur ants
el ing
臓acknowled ged
臓the r
臓gen es
ch ing
He y
臓tact ics
臓Mex ican
臓v end
臓he s
qu er
臓not ing
臓Camer on
臓target ing
ro ck
臓cred its
臓emot ions
臓represent atives
new s
臓legisl ative
臓rem oving
臓tweet ed
臓Car ter
臓F ixed
臓for cing
臓speak er
臓m ales
臓Viet nam
l ined
臓concept s
臓vo ices
o ir
臓T rib
W he
臓Jer usalem
臓S ant
臓c ul
臓l ady
臓Haw ai
臓ar ts
臓In n
臓Mach ine
臓Em peror
臓sl ot
g ly
臓Pro cess
II I
臓athlet es
臓Tem ple
臓Rep resent
臓pres c
臓t ons
臓gold en
臓p unch
臓G R
iver pool
臓en act
臓lob by
臓m os
臓pick ing
臓lif etime
臓cogn itive
E ach
z o
臓d ub
臓cons ists
ol n
臓f estival
am ous
臓int ellig
w ords
臓Sm art
臓de le
臓l apt
臓mag ical
臓S in
b us
ur ities
igh th
臓Rub y
臓S ure
ol ving
臓j un
O ST
臓imp osed
臓ast ron
臓cor rel
臓N S
臓K it
臓F uture
b urn
臓imm une
oc us
臓cour ses
臓St ring
臓le an
臓g host
臓out comes
臓exp ense
臓every day
臓accept able
A h
臓equ ipped
臓or ange
F R
臓D utch
Th ough
臓R ank
Q U
臓Rober ts
wh at
re nd
臓disapp ear
臓sp awn
臓L am
o is
臓des erve
臓min imal
臓nerv ous
臓W ould
臓ro ok
臓V ancouver
臓res ign
sh ire
臓W orks
臓B uild
臓afford able
臓G ary
臓Aren a
臓h anging
臓impl ications
臓S ong
臓main taining
臓gu ards
C ON
臓der ived
臓execut ed
臓the ories
臓qu oted
臓And re
og a
sel ess
in fo
臓Bel g
臓t ears
臓Sur v
臓birth day
ig ious
im mer
臓spect rum
臓architect ure
臓rec ruit
arm a
T able
臓mon sters
臓G ov
臓dest ination
臓attract ive
臓f oss
臓More over
臓pres ents
TH E
臓rep ly
pt on
臓c um
臓del ight
臓affect s
臓don ations
臓T oy
臓H im
M ENT
臓over come
it ched
臓Fant asy
臓H at
臓Be ast
b ott
臓investig ations
R un
臓hun ting
d i
f und
臓s essions
est yle
臓port ray
oid s
Y eah
臓commun icate
臓com edy
臓Y ang
臓bel t
臓Mar ine
臓predict ed
Pl ay
臓important ly
臓remark able
臓elim inate
D avid
臓b ind
V ID
臓advoc ates
臓G aza
im p
D B
臓N a
臓Sim ilar
I ES
臓char ity
v as
m ath
臓芒 母
ok er
nd um
臓cap s
臓H al
2 000
e an
臓fle et
臓rec re
R ight
臓sleep ing
ij ing
k ind
臓design ated
脙 陇
臓anim ation
ke e
臓Int rodu
臓/ >
臓delay ed
臓trem end
臓cur ious
U se
臓le ct
d am
臓innov ation
臓Point s
臓load ing
臓disp ute
ct ic
ird s
臓B Y
臓n urs
臓Val ue
ION S
臓H um
臓tem plate
m ers
臓appear ances
臓Enter tainment
臓transl ation
臓sa ke
臓bene ath
臓in hib
臓e uro
abet es
臓stud ying
臓M as
臓per ceived
臓exam ined
臓e ager
臓co aches
臓im per
ch i
臓produ ces
" ).
臓Every one
臓m unicip
臓g irlfriend
臓h ire
臓V ice
臓su itable
op y
臓in equ
臓D uke
f ish
f irst
臓O bs
臓inter ior
臓Bru ce
臓R y
臓anal ys
臓consider able
臓fore cast
臓f ert
ors hip
臓D rug
臓A LL
: "
th ur
臓M ail
臓ball ot
臓inst antly
臓Ch annel
臓p icks
臓198 9
臓t ent
ol i
臓civil ian
b ling
ell o
b u
臓in ch
臓log o
臓cooper ation
臓wal ks
臓invest ments
臓imp rison
臓F estival
臓K y
臓leg ally
臓g ri
ch arg
S l
臓threat ening
du ction
fl ow
臓dismiss ed
ibr aries
c ap
e le
臓Mc G
臓Har vard
臓Conserv ative
臓C BS
p ng
臓ro ots
臓H aving
umb led
臓F un
\ /
臓S earch
ple x
臓discuss ing
臓contin u
臓T ai
臓W ik
F ree
f it
臓ref use
臓manag ing
臓sy nd
ip edia
w alk
臓profession als
臓guid ance
臓univers ities
臓as semb
unt u
F inally
AS E
臓Aut o
臓H ad
臓ann iversary
L D
臓D ur
臓Ult imate
ih ad
pro duct
臓trans it
臓rest ore
臓expl aining
臓ass et
臓transfer red
臓bur st
ap olis
臓Mag azine
臓C ra
臓B R
gg ed
臓H E
M ich
b et
臓L ady
yl um
erv es
臓me ets
wh ite
L og
臓correspond ing
臓ins isted
G G
臓surround ed
臓t ens
臓l ane
臓co inc
h ome
臓exist ed
ect ed
臓Dou ble
lam m
臓ske pt
ex p
臓per ception
ie v
臓Be ing
o ft
臓adop t
. :
] ;
Wind ows
臓satell ite
AS H
臓inf ant
d escription
臓Me anwhile
c m
oc a
臓T reat
act or
臓tob acco
臓N orm
em ption
臓fl esh
臓j e
o op
臓He aven
臓be ating
an im
臓gather ing
臓cult iv
G O
ab e
臓Jon athan
臓Saf ety
臓bad ly
pro t
臓cho osing
臓contact ed
臓qu it
臓dist ur
臓st ir
臓to ken
D et
臓P a
臓function ality
00 3
s ome
臓limit ations
臓met h
b uild
con fig
N T
re ll
ble m
臓M om
臓veter ans
臓H u
臓trend s
are r
臓G iven
臓Ca ption
m ay
AS T
臓wond ering
臓Cl ark
n ormal
臓separ ated
臓des p
st ic
b rew
臓rel ating
臓N ik
臓F arm
臓enthus i
g ood
d eb
臓activ ist
臓m art
臓explos ion
臓Econom ic
L ink
臓ins ight
臓conven ient
臓counter part
su pport
臓V irt
ag en
臓Tenn essee
臓Sim on
臓A ward
OC K
臓F igure
臓overse as
臓pr ide
臓C as
n ote
m g
C urrent
臓displ ays
cont ent
臓travel ing
臓hosp itals
臓Fin ancial
臓P ast
臓defend ant
臓stream ing
m ble
臓Ber lin
uk i
臓dist ribut
臓ant ib
臓ch ocolate
臓Cast le
臓inter rupt
臓R ow
臓convers ion
臓bug s
臓R ather
li est
L Y
臓Je an
com mon
ak h
臓1 30
ot ton
臓De an
臓am endment
臓game play
臓War ren
od a
臓high lights
臓ir re
臓NAT O
臓ball s
臓demand ing
U RE
臓L uke
F igure
st op
on ia
z one
iz ers
臓W R
臓award ed
臓regul atory
臓H art
臓S N
pl ing
臓s our
臓P ixel
us ive
臓f et
臓S ent
臓autom atic
臓f er
vern ment
臓Kh an
T ON
f ather
臓extraord inary
th rop
臓P ython
臓G PU
臓sex ually
臓desk top
it ivity
臓Anton io
臓o rient
臓e ars
ob by
ous es
vertis ements
臓manufacture rs
ic ient
min ute
臓conv iction
臓g arden
p ublic
臓satisf ied
f old
O K
臓in hab
臓Th ink
臓program me
臓st omach
臓coord in
臓h oly
臓th reshold
臓r het
臓ser ial
臓employ ers
臓Every thing
ra h
臓b other
臓br ands
Val ue
臓T ed
臓Plan et
臓p ink
臓Further more
s a
P E
re ck
臓US D
ot te
臓& &
臓land ed
g ets
臓produ cers
臓health care
臓domin ant
臓dest ro
臓am ended
ch ron
臓f its
臓Sy d
臓Author ity
AT CH
臓fight s
臓L LC
臓-- -
臓Cor p
臓tox ic
spe cific
臓C orn
臓Che l
臓tele phone
臓P ant
臓myster ious
aun ch
od ox
med ia
臓witness es
ag u
臓question ed
臓Bre xit
臓Rem ember
ene z
臓end orse
iat ric
臓Id ent
臓ridic ulous
1 10
臓pr ayer
臓scient ist
臓19 50
臓A qu
臓under ground
臓U FC
m are
臓L ater
w ich
臓subsc rib
臓host s
臓er r
臓gr ants
ant om
臓sum mon
ear ly
臓C lear
臓Pr im
臓susp ension
臓guarant eed
app er
臓r ice
臓Se an
臓Sh in
臓refere ndum
臓fl ed
r ust
臓3 60
ter y
臓sh ocked
B R
臓O il
臓All ah
臓part ly
臓ign or
臓trans mission
臓hom osexual
ivers al
臓hop efully
茫膜 陇
臓less on
L eg
臓 ..
Y et
t able
app ropri
re tt
臓bo ards
臓incor rect
臓b acteria
ar u
am ac
臓sn ap
.' "
臓par ad
t em
he art
臓av ailability
臓w isdom
臓( +
臓pri est
臓脗艂 臓脗艂
O pen
臓sp an
臓param eter
臓conv ince
臓( %)
r ac
臓f o
臓safe ly
臓conver ted
臓Olymp ic
臓res erve
臓he aling
臓M ine
M ax
臓in herent
臓Gra ham
臓integ rated
D em
臓pip eline
臓app lying
臓em bed
臓Charl ie
臓c ave
200 8
臓cons ensus
臓re wards
P al
臓HT ML
臓popular ity
look ing
臓Sw ord
臓Ar ts
' )
臓elect ron
clus ions
臓integ rity
臓exclus ively
臓gr ace
臓tort ure
臓burn ed
tw o
臓18 0
P rodu
臓ent reprene
raph ics
臓g ym
ric ane
臓T am
臓administr ative
臓manufacture r
臓 vel
臓N i
臓isol ated
臓Medic ine
臓back up
臓promot ing
臓command er
臓fle e
臓Rus sell
臓forg otten
臓Miss ouri
臓res idence
m ons
臓rese mb
臓w and
臓meaning ful
P T
臓b ol
臓he lic
臓wealth y
臓r ifle
str ong
row ing
pl an
as ury
芒蘑娄 .
臓expand ing
臓Ham ilton
臓rece ives
S I
eat ures
臓An im
RE E
P ut
臓brief ly
ri ve
臓stim ul
臓`` (
臓 __
臓ch ip
臓ha z
臓pri ze
臓Th ings
AC E
ul in
d ict
ok u
臓associ ate
ock ets
y outube
St ory
ateg ory
臓m ild
ail ing
臓Y e
O rig
臓K a
or ig
臓propag anda
臓an onymous
臓strugg led
臓out rage
AT ED
臓Be ijing
r ary
臓le ather
臓world s
臓broad er
12 5
id al
臓Bet ter
臓t ear
E xt
臓propos als
臓it er
臓Squ ad
臓vol unt
m i
D id
臓P u
p in
臓speak ers
臓b orders
臓fig ured
= '
臓simultane ously
aed a
臓charg ing
臓ur ged
臓con j
25 6
臓G ordon
mer ce
臓document ary
Sh are
it ol
ON E
臓G arden
h att
臓Thom pson
ane ous
ap ore
臓t anks
臓less ons
tr ack
臓out standing
臓volunte ers
臓sp ray
臓manag ers
l arge
臓camp s
臓art ificial
臓R u
臓b ags
th al
臓compat ible
臓Bl ade
臓f ed
臓arg ues
F I
臓unf air
臓cor n
臓off set
臓direct ions
臓disappoint ed
臓Con vention
臓view ing
M E
oc ity
臓town s
臓lay ers
臓ro lled
臓jump ed
臓att ribute
臓un necess
inc oln
臓supp ose
臓Net her
ch a
臓bur ied
臓six th
B en
ress ing
OU R
臓w ound
臓cy cl
臓mechan isms
臓congress ional
臓E lement
臓agre ements
臓dec or
臓clos est
臓M it
Go ogle
} }
臓m ixture
臓flu id
S ign
臓Sch olar
臓p ist
ask et
ab ling
臓rac ing
he ro
ri el
ass y
臓che aper
b en
臓vert ical
amac are
臓Read ing
g ments
臓helic op
臓sacr ifice
ay a
p aren
V A
臓L es
臓Stud io
臓viol ations
臓An na
ac er
茅 戮
臓R at
臓Be ck
臓D ick
臓A CT
臓comp osition
臓text ure
臓O wn
臓smart phone
臓N A
臓for b
im port
臓def ending
il st
re r
臓o h
臓Jere my
臓bank ing
cept ions
臓respect ive
/ .
臓dr inks
臓W i
臓b ands
臓L iverpool
臓g rip
臓B uy
臓open ly
臓review ed
per t
臓ver ify
臓Co le
臓W ales
M O
臓un pre
臓shel ter
臓Im perial
臓gu i
臓D ak
臓suggest ions
臓explicit ly
臓sl ave
臓block chain
臓compet ing
臓prom ising
S ON
臓soc cer
臓const itution
4 29
臓dist ract
臓U ser
es ides
臓Met hod
臓Tok yo
臓accompan ied
Cl ient
s ur
al og
臓ident ification
臓inv asion
as ma
臓indust ries
pp ers
臓sub tle
臓Un it
n atural
臓surv ived
臓fl aw
暮 魔
臓H oll
臓def icit
臓tut orial
臓Ch ance
臓arg uing
臓contem porary
臓integ ration
for ward
臓t um
it is
臓h iding
臓D omin
臓T an
臓B uilding
臓V in
臓spokes person
臓Not es
臓emer ging
臓prepar ation
臓pro st
臓suspect s
臓aut onom
D escription
臓deal t
臓P ear
臓stead y
臓decre ased
臓so vere
臓Cl in
臓grad ually
ors es
臓W AR
S erv
茫膜 垄
h r
臓d irty
臓B arn
臓B C
臓d il
臓cal endar
臓compl iance
臓ch amber
b b
臓pass enger
ate ful
臓T itle
臓Syd ney
臓G ot
臓dark ness
臓def ect
臓pack ed
ass ion
臓god s
臓h arsh
IC K
le ans
臓algorith m
臓oxy gen
臓vis its
臓bl ade
臓kil omet
臓Kent ucky
臓kill er
P ack
enn y
臓div ine
臓nom ination
be ing
臓eng ines
臓c ats
臓buff er
臓Ph ill
臓tra ff
AG E
臓tong ue
臓rad iation
ere r
m em
臓Expl icit
茅戮 寞
臓cou ples
臓phys ics
臓Mc K
臓polit ically
aw ks
臓Bl oom
臓wor ship
e ger
ut er
臓F O
臓mat hemat
臓sent enced
臓dis k
臓M arg
臓/ *
P I
臓option al
臓bab ies
臓se eds
臓Scott ish
臓th y
] ]
臓Hit ler
P H
ng th
臓rec overed
ing e
臓pow der
臓l ips
臓design er
臓dis orders
臓cour age
臓ch aos
" },{"
臓car rier
b ably
H igh
臓R T
es ity
l en
臓rout es
u ating
F il
N OT
w all
s burgh
臓eng aging
臓Java Script
ore r
li hood
臓un ions
臓F ederation
臓Tes la
臓comple tion
臓T a
臓privile ge
臓Or ange
臓ne ur
paren cy
臓b ones
臓tit led
臓prosecut ors
臓M E
臓engine er
臓Un iverse
臓H ig
n ie
o ard
臓heart s
臓G re
uss ion
臓min istry
臓pen et
臓N ut
臓O w
臓X P
in stein
臓bul k
S ystem
ic ism
臓Market able
臓pre val
臓post er
臓att ending
ur able
臓licens ed
臓G h
et ry
臓Trad able
臓bl ast
脿 陇
臓Tit an
ell ed
d ie
H ave
臓Fl ame
臓prof ound
臓particip ating
臓an ime
臓E ss
臓spec ify
臓regard ed
臓Spe ll
臓s ons
own ed
臓m erc
臓exper imental
land o
h s
臓Dun geon
in os
臓comp ly
臓System s
ar th
臓se ized
l ocal
臓Girl s
ud o
on ed
臓F le
臓construct ed
臓host ed
臓sc ared
act ic
臓Is lands
臓M ORE
臓bl ess
臓block ing
臓ch ips
臓ev ac
P s
臓corpor ation
臓o x
臓light ing
臓neighb ors
臓U b
ar o
臓be ef
臓U ber
F acebook
ar med
it ate
臓R ating
臓Qu ick
臓occup ied
臓aim s
臓Add itionally
臓Int erest
臓dram atically
臓he al
臓pain ting
臓engine ers
M M
臓M ust
臓quant ity
P aul
臓earn ings
臓Post s
st ra
茫磨录 茫磨
臓st ance
臓dro pping
sc ript
臓d ressed
M ake
臓just ify
臓L td
臓prompt ed
臓scr ut
臓speed s
臓Gi ants
om er
臓Ed itor
臓describ ing
臓L ie
ment ed
臓now here
oc aly
臓inst ruction
fort able
臓ent ities
臓c m
臓N atural
臓inqu iry
臓press ed
iz ont
for ced
臓ra ises
臓Net flix
臓S ide
臓out er
臓among st
im s
ows ki
臓clim b
ne ver
臓comb ine
d ing
臓comp r
臓signific ance
臓remem bered
臓Nev ada
臓T el
臓Sc ar
臓War riors
臓J ane
臓cou p
b as
臓termin al
, -
O H
臓t ension
臓w ings
臓My ster
茂驴陆茂驴陆 茂驴陆茂驴陆
臓Un like
val id
viron ments
臓Al i
臓n aked
book s
臓M un
臓G ulf
臓d ensity
臓dim in
臓desper ate
臓pres idency
臓198 6
h y
IN D
臓un lock
im ens
臓hand led
臓E b
臓disapp eared
臓gen re
臓198 8
臓determin ation
St ream
ik o
ap ters
臓acknow ledge
J an
臓capital ism
P at
臓20 20
臓pain ful
臓cur ve
臓bom bs
st orm
臓Met al
en cer
臓F ig
臓A aron
anc hes
臓ins piration
臓exha ust
t ains
ash i
臓desc ript
臓r itual
臓Chel sea
臓promot ion
臓H ung
臓W ard
iv a
臓E T
臓to ss
all ow
臓Franc is
D ep
臓happ iness
臓Gl ass
臓bet a
臓streng then
N E
o a
臓butt ons
臓Mur ray
臓kick ed
Qu est
臓T alk
臓S everal
臓Z ero
臓dr one
ul k
臓c am
臓M obile
臓prevent ing
臓ret ro
臓A x
臓cru el
臓flo at
. ),
臓fil ing
臓Gr ant
臓B or
臓r ib
臓champions hip
臓M erc
臓sty les
臓c ake
臓build s
臓S elf
io x
臓ep ic
oy d
B el
臓St ew
. (
ah u
臓Be yond
臓out s
臓sol o
臓T ree
臓pres erve
臓t ub
AR E
ro c
臓Im pro
臓W right
臓bu nd
臓tr aged
臓occas ional
b ian
Sec ond
r ons
臓inter actions
form ed
s ing
臓own s
臓h ockey
Gener al
臓log ical
臓exp end
臓esc al
臓Gr iff
臓C rown
臓Res erve
臓sto pping
臓exc use
sec ond
臓oper ated
臓re aches
臓Mal ays
臓poll ution
臓Brook lyn
臓de lete
臓has h
Bl ock
ah a
芒蘑 鲁
臓sh orter
p iece
> </
臓h orm
臓W at
臓Bre ak
臓prohib ited
臓int ensity
臓Al an
臓li ability
? !
and ed
臓neigh bour
臓Col lection
臓f ires
臓revolution ary
f ly
臓Or leans
Wh ite
臓W rit
臓D awn
臓sett le
臓exec ute
B M
臓spokes woman
臓lif estyle
臓click ing
臓K ill
臓Liber al
臓N azi
臓tra iler
臓mount ains
臓dam n
z es
p es
臓press ing
臓b ail
臓Organ ization
臓p ir
臓th irty
臓elect rical
臓1 15
臓P oly
臓R ap
臓St rike
臓C ann
臓demand ed
臓back ing
def ault
spe ed
臓Leg isl
臓mother s
臓B ody
臓var iation
ced ented
p owered
le ading
N ever
臓g rave
臓Ant i
A W
臓interview ed
臓G ab
臓F at
臓rook ie
u u
臓dep os
ix on
臓am pl
ret ion
臓He at
臓peace ful
S M
ie ve
臓d iver
臓Vict oria
臓m ic
p df
臓st ating
臓l ung
臓critic ized
臓vacc ine
臓Load ing
ur se
T ake
臓Fr an
臓S old
臓Rob in
臓detect ed
臓Sc ript
臓adjust ed
臓sen ator
臓opp osing
Er ror
C ount
臓conflic ts
臓o w
臓Ar gent
臓match ing
h h
臓Tre k
st arter
" ),
臓A F
od er
xx xx
臓Al t
ac re
臓P ick
臓Sol ar
臓D al
O ct
臓B att
臓s rc
臓eng agement
臓execut ives
臓liber ty
j ava
臓tal ented
igen ous
臓con secut
.. ...
In fo
臓hor rible
臓surprising ly
f eed
ic ating
臓L ED
臓fem ales
St ation
ell er
臓Oak land
臓mechan ical
i ology
臓V ar
臓rob ust
ett ings
ott a
臓the oret
臓ret ain
k ward
臓d a
臓deploy ed
d el
臓And y
臓subsc ribe
we b
臓n a
臓Mic hel
臓part ially
臓Come y
臓c rown
臓M aj
臓Bl u
r ator
D ay
IN T
臓document ed
臓G DP
g i
che ll
臓brut al
臓B ab
st ration
臓the ft
臓t ube
@ @
臓qu ery
臓L incoln
臓publish ing
臓w ore
or ical
臓r ic
臓not able
臓subsequ ently
ne x
臓obser ve
臓B oe
臓c odes
m ain
W H
臓S L
臓resident ial
av an
臓m as
are st
ade on
OU T
臓soph istic
ant e
臓c ens
臓 **
臓mort ality
臓your s
臓occas ions
臓rec alled
臓Dri ver
臓v ocal
臓bath room
臓sh ops
臓collabor ation
臓Ob amacare
臓C ell
Ch ar
Su per
C re
臓t ends
臓t orn
臓econom ics
a very
臓R aid
臓S em
臓should ers
臓expect ing
臓exam ination
en ame
臓U I
i ability
ol as
臓Am b
臓D ra
臓mid field
臓I C
臓lay out
臓flo ating
f i
it ative
臓tremend ous
臓 脨
臓ab und
W ork
臓Light ning
臓similar ly
臓conserv atives
臓pr ay
B E
iz arre
臓t empt
臓emphas is
臓Met ro
臓f ishing
臓mar ry
ne g
臓Stud y
臓rec k
臓dis pos
on ing
bs ite
臓susp ic
臓mer ch
臓G ib
臓Des cription
臓D VD
w he
臓Y emen
臓en vironments
oot ing
臓Mod ern
e u
臓reflect s
臓h oney
臓analy st
臓g ut
d ec
A ction
臓household s
臓st er
臓tem ple
臓reform s
臓favour ite
臓dead line
臓L E
Th ree
臓With in
A ug
臓night s
elt a
臓inv alid
臓Ex change
臓Del hi
w hen
inc ome
臓 冒艁
臓wire less
sc ribe
ist a
臓host ile
臓all y
臓g ig
臓out lets
臓D or
EM ENT
臓as h
臓ab stract
OR D
臓Mot or
臓adv iser
ist le
臓b ases
臓court esy
臓cross ing
臓cle ared
臓refuge e
cos ystem
臓throw s
f un
bour ne
d ays
臓disag ree
臓N ative
臓reflect ed
臓F ast
臓Y ellow
臓Sing apore
臓R aven
臓embr ace
臓K u
臓C hen
臓Ear ly
臓appoint ment
臓Min i
it ement
臓pl acing
臓b icy
S R
臓wh is
S U
臓investig ated
臓photograph s
g ithub
臓Be at
臓R ing
ig hed
i ar
臓ev olved
eral d
臓d un
臓h ub
I AL
臓encour aging
臓Pr int
臓D ays
臓pro secution
臓p ants
az y
l ive
臓foss il
臓J u
臓ro cks
ud ge
臓R ace
臓g reet
b ie
臓f illing
臓L en
臓di abetes
臓fire arms
um ing
enez uel
臓B B
臓accept ing
AT H
臓res ort
臓h unt
ri k
uck er
am ents
臓sust ained
臓cross ed
臓break fast
臓att ributes
lect ed
at ile
臓v ibr
臓K al
ars on
op les
臓tou ched
臓dam ages
臓imp ressed
ru p
臓an ch
臓Ad ams
H el
臓Vict or
臓mount ed
臓C C
臓delic ious
sp an
ell a
臓el abor
am ples
臓def ic
臓constit u
u ates
臓M ission
臓T her
臓Mon ster
b es
Re uters
臓Ind ones
h ill
mun ition
臓confirm ation
臓Cons ider
ac ent
臓j et
臓Em ploy
臓GT X
n an
臓Sp ider
臓process or
臓pat ri
臓Pent agon
臓Rob inson
臓real istic
脙 卤
臓appear ing
臓p ipe
om ed
臓f ru
臓aw ful
臓eval uation
臓intellig ent
臓C itiz
臓fund ra
od ium
臓twe ets
臓wor n
pr ing
臓kid n
臓reb els
臓K am
臓Nether lands
臓S W
臓acqu isition
臓M ale
茫磨 陋
omb ies
臓trad em
臓Stat us
B re
臓TH IS
臓ad verse
臓N EW
s ign
臓organ isation
en c
臓Har per
ap or
臓Mem bers
臓Pe ace
臓Air port
臓Other s
臓scr atch
臓P il
臓sens or
臓adop tion
臓Hot el
臓Dr ag
臓honest ly
臓y ard
臓For ces
臓pat ent
臓b ass
臓quiet ly
臓breat hing
臓p ose
i ors
臓J ess
st atic
IT E
O ffic
臓j ew
w cs
臓14 0
臓pre view
ipp i
臓unf ortunately
oke mon
臓h orn
臓re ass
臓pe er
ock er
臓unt o
臓Gr ay
臓clean ing
臓attract ed
200 7
P oint
k ill
臓Ag reement
ur ches
臓hor r
臓Miss iss
臓worth y
臓fl owers
t own
d ll
臓re actions
臓de ce
臓indic ating
M D
臓pre ference
臓M VP
ess ional
臓T arget
g ence
臓Ind ians
臓m isc
臓free ly
臓mus cles
臓line up
臓impact s
ous ing
om i
ac ular
臓contro lling
ag ine
c ery
he ll
臓rank ing
臓N ich
臓A ve
12 8
臓high way
臓inc ons
臓b inding
臓strugg les
臓Pitt sburgh
臓gr ay
r in
臓com ics
臓S port
臓rel atives
臓fr ight
臓pro be
臓Port ug
臓v oc
臓t u
臓Cor ps
臓poss ibilities
臓qual ify
wcs store
臓l ibraries
臓m igrants
臓ent ries
臓consecut ive
v als
臓Chair man
臓h ill
IM E
臓G ard
臓inequ ality
f ox
臓S ave
臓c ort
claim ed
臓tra its
臓p our
臓miss iles
臓ess ence
臓s ends
臓all iance
臓w ishes
臓Christ opher
B ig
N Y
臓Jac ob
s an
ur red
臓S O
ll y
臓advoc ate
臓B ond
臓" /
Us ing
臓district s
臓G ate
臓B ir
r idge
臓N az
臓R s
bo ards
臓G a
臓Re agan
臓influ enced
1 000
ap y
臓challeng ed
臓b arg
臓fac ulty
臓F if
臓acqu ire
A c
臓in sect
臓instr uments
臓le af
th odox
M essage
臓t ale
臓there by
臓tra p
臓strong est
臓Mil itary
is ible
臓198 4
ethe less
臓flex ible
臓kill s
臓fin ishing
臓S ize
臓redu ces
臓ep id
臓orient ation
f ull
臓tr ace
臓l aser
臓opp ose
臓ed iting
臓moment um
盲 潞
sh ow
V I
臓L ad
臓198 5
臓murd ered
9 00
ut her
臓prob ability
臓P oll
臓rel uct
臓Che m
臓Mont real
臓adequ ate
臓Pol and
臓Sher iff
um ph
臓o k
臓 000
臓" [
臓oper ators
臓F er
臓mod es
臓E ve
臓discipl ine
N ET
H and
臓or al
臓W E
em ail
J P
臓Palestin ians
臓he nce
臓L ess
臓over l
d ig
臓intim id
臓Co al
臓r anging
th a
臓dist ant
臓f ib
臓Ind ex
臓W onder
臓P el
hatt an
臓H ug
脙 墓
ra it
臓wra pped
臓R PG
臓chemical s
臓M oney
臓fro zen
臓ind irect
臓Again st
E nd
臓uncom fortable
臓Gall ery
臓Post ed
脴 搂
ond uct
臓consequ ence
臓bit ter
臓198 7
p op
臓count less
臓Al aska
ff ff
臓depart ure
臓ref und
臓I an
i ated
臓see ks
臓mechan ics
臓jurisd iction
lyn n
臓al ike
臓H unt
ath on
臓res olved
臓c ache
臓dist inction
d irect
臓enc ount
ou b
be at
臓Count ry
se arch
臓contin uous
臓mod est
臓R ail
th ood
1 30
B UG
臓crim inals
臓indic ation
臓encount ered
l ast
臓W y
臓ide ology
臓P DF
sec urity
] )
臓Jim my
臓E N
臓h iring
T em
臓p ig
aun t
臓Cry stal
臓pen alties
臓cap ability
臓p y
臓product ive
臓bal anced
臓Ge Force
cl ick
olit an
od s
臓after wards
臓play offs
臓G ill
U ser
臓back s
p ub
t ag
臓abs urd
p iring
臓c iting
臓tr illion
臓oblig ation
臓max im
ah oo
c f
um i
臓Al pha
臓N elson
臓pursu ant
in itely
臓f ract
ent ry
ber y
臓Th or
Add ed
臓D J
臓G ene
臓aw kward
St ud
臓wal let
臓Div ine
ari os
臓rele asing
臓ed ited
臓accompl ished
B est
臓ed ges
臓plan es
臓feed ing
" },"
臓discl osure
臓gr ain
air y
o ons
ern and
V R
臓reason ably
臓dr um
臓part ial
臓graph ic
臓unpre cedented
臓adv ised
M icro
臓Ass ad
point s
sc ar
臓Z one
tt es
臓7 00
v o
臓H amp
臓fix es
臓ca ution
臓str ings
臓pan els
臓le ak
臓pr icing
row th
臓Er ror
臓S aints
f ix
臓observ ations
臓A bs
臓suggest ion
臓Ukrain ian
臓bar rier
臓pain ted
B et
im ir
臓S pect
p ot
orne ys
臓comp ound
臓be ars
臓R ush
臓lux ury
S um
臓or bit
臓Mar c
臓ex empt
臓Tra il
臓M O
臓H ans
臓We apon
oc used
umin um
臓Jer ry
臓b ust
臓A G
臓W iki
臓end less
臓V lad
臓B ah
臓R adeon
ke ys
臓Sur vey
臓V iol
def ine
le an
臓comm od
臓reven ues
脜 寞
臓furn iture
臓cast ing
臓diplom atic
臓Play ers
臓K illed
臓mod ify
臓innov ative
臓Ab u
n or
臓bond s
臓coach ing
M er
臓mod ules
臓Patri ots
臓enh anced
臓proceed ings
臓team mates
臓12 8
ard o
臓comprom ise
臓M uch
臓fle w
臓Ed ge
臓unnecess ary
臓doct rine
re port
臓Or lando
臓Prof ile
臓play off
friend ly
臓compl ain
臓M C
臓O pt
臓G B
臓beat en
臓g olf
臓pl acement
B it
臓news letter
臓201 9
vis or
raw l
臓iP ad
臓act ed
臓ju ice
臓dec ks
P N
su ccess
臓H alf
臓dele ted
臓sec rets
臓as ylum
M art
臓Act iv
臓Gu y
臓T s
臓d ys
臓assum ing
臓man a
臓sub ur
臓12 5
M edia
AR Y
r ide
c p
臓difficult ies
臓collect ing
臓bank rupt
n on
臓comp osed
臓vol t
臓milit ants
臓> >>
臓M ormon
t or
臓partic les
臓B art
ry ption
臓ad min
臓squ ee
VID IA
臓creat or
iam eter
ic ular
N BC
臓grab bed
臓n odd
臓r ated
臓rot ation
臓gr asp
臓excess ive
臓E C
臓Wh it
臓invent ory
ault s
臓F B
臓e cosystem
臓bill ions
臓vent ure
n amed
臓def ender
out e
Inst ead
ir able
W ar
臓assum ption
臓b ite
臓earth qu
t ail
sp ace
臓gif ts
boy s
臓inev itable
臓struct ural
臓benef icial
臓compe lling
h ole
erv ation
臓co at
o j
inc arn
臓Y ears
臓determin ing
臓rhet oric
臓bound aries
臓wh ites
A nt
add y
) -
ra ham
eter min
臓har vest
臓Con c
臓lapt op
臓M atch
臓enjoy ing
cc a
oll ar
臓tri ps
臓add iction
臓S ak
臓pow ered
臓c ous
臓Russ ians
ie re
臓ret rie
qu ality
臓diff er
臓king dom
臓L aur
臓Cap itol
臓con clusions
臓Al tern
臓N av
臓trans parent
B ER
G roup
臓Com plete
臓inf er
臓int rig
臓ins ane
R O
oph ob
is en
qu al
Mich ael
臓m useum
臓P ope
臓res et
r ative
f ive
臓agg reg
itte es
osit ory
臓car b
臓Rec ord
臓dec ides
臓F ix
臓except ions
臓Commission er
un s
臓Environment al
臓legend ary
ist ence
臓tun nel
k m
臓ins ult
臓t roll
臓sh ake
臓det ention
qu es
臓Ch rome
臓F iles
臓sub t
臓prospect s
臓pro l
re nder
pro of
臓perform ances
St r
臓h ref
ern ame
臓achieve ment
臓f ut
F ull
臓Le ban
go ogle
茫磨 莫
amp a
May be
臓project ed
臓E mb
臓col leg
臓a wards
臓芒 亩
G old
臓Bl ake
臓R aj
if ting
臓p ending
臓inst inct
臓develop ments
Con nect
臓M and
臓W ITH
臓Philipp ines
prof ile
臓alt ogether
臓B und
臓T D
oo oo
amp ed
ip h
臓ste am
臓old est
臓det ection
ul pt
臓 莽
臓Way ne
200 6
f a
臓cir cles
臓F u
臓don ors
appropri ate
臓Dak ota
j amin
臓motiv ated
臓purch ases
臓Louis iana
臓S pl
臓gl obe
臓10 5
z ip
c all
臓depart ments
臓sustain able
10 5
臓O P
if iers
臓prevent ed
臓inc omp
臓Comm ander
臓dom inated
臓脗 禄
臓invest ed
臓complex ity
臓in cl
臓ens uring
臓real m
yn c
臓Ind ependent
r ained
臓J en
臓Fl ight
臓at he
臓spec ulation
臓T E
oc ate
t ic
臓pl aint
her ry
臓to y
臓1 11
臓pl ates
st atus
臓Is a
臓dev oted
C op
臓E S
25 5
ur rency
M ain
臓sl aves
臓pe pper
臓qu otes
臓ce iling
臓F ish
臓trans formation
臓fra ction
臓advant ages
臓to ile
臓stun ning
臓mo ist
bre aking
s i
臓L ocation
臓Med ium
臓text s
臓u gly
臓b io
. 芒蘑亩
臓B ased
臓tr ains
臓W ing
臓An cient
臓Rec ords
臓H ope
Spe cial
ades h
ob i
[ /
臓tempor arily
V er
h u
os er
臓over night
臓m amm
臓Tre asury
臓V enezuel
臓Meg a
臓t ar
臓expect s
bl ack
or ph
\\ \\
臓accept ance
臓rad ar
s is
臓jun ior
臓fram es
臓observ ation
ac ies
P ower
臓Adv anced
M ag
olog ically
臓Me chan
臓sent ences
臓analy sts
augh ters
force ment
臓v ague
臓cl ause
臓direct ors
臓eval uate
臓cabin et
M att
臓Class ic
A ng
臓cl er
臓B uck
臓resear cher
臓16 0
臓poor ly
臓experien cing
臓P ed
臓Man hattan
臓fre ed
臓them es
ad vant
臓n in
臓pra ise
10 4
臓Lib ya
b est
臓trust ed
臓ce ase
臓d ign
D irect
臓bomb ing
臓m igration
臓Sci ences
臓municip al
臓A verage
臓gl ory
臓reve aling
臓are na
臓uncertain ty
臓battle field
ia o
G od
臓c inem
ra pe
el le
ap ons
臓list ing
臓wa ited
臓sp otted
ke ley
臓Aud io
e or
ard ing
idd ing
ig ma
臓N eg
臓l one
臓 ----
ex e
d eg
臓trans f
臓was h
臓sl avery
臓expl oring
臓W W
ats on
臓en cl
l ies
臓C reek
臓wood en
Man ager
臓Br and
um my
臓Ar thur
臓bureau cr
臓bl end
ar ians
F urther
臓supposed ly
臓wind s
臓19 79
臓grav ity
臓analys es
臓Tra vel
臓V eter
臓d umb
臓altern ate
g al
臓consum ed
臓effect iveness
.' '
臓path s
ond a
L A
臓Str ong
臓en ables
臓esc aped
臓" "
臓1 12
臓198 3
臓sm iled
臓tend ency
F ire
臓p ars
臓R oc
臓l ake
臓f itness
臓A th
臓H orn
臓h ier
臓imp ose
m other
臓p ension
ic ut
bor ne
ic iary
. _
臓S U
臓pol ar
is y
eng u
itial ized
AT A
w rite
臓exerc ises
臓D iamond
ot ypes
臓harm ful
on z
臓print ing
st ory
臓expert ise
臓G er
臓traged y
臓F ly
臓d ivid
amp ire
st ock
M em
臓re ign
臓un ve
臓am end
臓Prop het
臓mut ual
臓F ac
臓repl acing
H ar
臓Circ uit
臓thro at
臓Sh ot
臓batter ies
臓to ll
臓address ing
臓Medic aid
臓p upp
臓N ar
ol k
臓equ ity
M R
臓His pan
臓L arge
m id
D ev
臓exp ed
臓dem o
臓Marsh all
erg us
臓f iber
臓div orce
臓Cre ate
臓sl ower
臓Park er
臓Stud ent
臓Tr aining
Ret urn
臓T ru
臓c ub
臓Re ached
臓pan ic
臓qu arters
臓re ct
臓treat ing
臓r ats
臓Christian ity
ol er
臓sac red
臓decl are
ul ative
et ing
臓deliver ing
est one
臓t el
臓L arry
臓met a
ac cept
art z
臓Rog er
hand ed
臓head er
臓tra pped
臓Cent ury
臓kn ocked
臓Ox ford
臓surviv ors
b ot
臓demon stration
臓d irt
臓ass ists
OM E
臓D raft
ortun ate
fol io
pe red
ust ers
g t
臓L ock
臓jud icial
ver ted
臓sec ured
out ing
臓Book s
臓host ing
臓lif ted
l ength
臓j er
臓whe els
臓R ange
umbn ails
臓diagn osis
te ch
臓Stew art
臓P ract
臓nation wide
臓de ar
臓oblig ations
臓grow s
臓mand atory
臓susp icious
! '
A pr
G reat
臓mort gage
臓prosecut or
臓editor ial
臓K r
臓process ed
ung le
臓flex ibility
Ear lier
臓C art
臓S ug
臓foc uses
臓start up
臓bre ach
臓T ob
cy cle
茫蘑 漠
ro se
臓b izarre
茫蘑 寞
臓veget ables
$ $
臓ret reat
osh i
臓Sh op
臓G round
臓St op
臓Hawai i
臓A y
Per haps
臓Be aut
uff er
enn a
臓product ivity
F ixed
cont rol
臓abs ent
臓Camp aign
G reen
臓ident ifying
臓reg ret
臓promot ed
臓Se ven
臓er u
ne ath
aug hed
臓P in
臓L iving
C ost
om atic
me ga
臓N ig
oc y
臓in box
臓em pire
臓hor izont
臓br anches
臓met aph
Act ive
ed i
臓Fil m
臓S omething
臓mod s
inc ial
臓Orig inal
G en
臓spir its
臓ear ning
H ist
臓r iders
臓sacr ific
M T
臓V A
臓S alt
臓occup ation
臓M i
臓dis g
lic t
臓n it
臓n odes
e em
臓P ier
臓hat red
ps y
茫磨 墨
臓the ater
臓sophistic ated
臓def ended
臓bes ides
臓thorough ly
臓Medic are
臓bl amed
arent ly
臓cry ing
F OR
pri v
臓sing ing
臓I l
臓c ute
o ided
olit ical
臓Ne uro
氓 陇
臓don ation
臓Eag les
臓G ive
T om
臓substant ially
臓Lic ense
臓J a
臓g rey
臓An imal
臓E R
臓U nd
臓ke en
臓conclud e
臓Mississ ippi
Eng ine
臓Stud ios
P ress
o vers
ll ers
臓3 50
臓R angers
臓r ou
ert o
E p
iss a
iv an
臓se al
臓Reg ist
dis play
臓we aken
u um
臓Comm ons
臓S ay
臓cult ures
臓l aughed
臓sl ip
臓treat ments
iz able
m art
臓R ice
臓be ast
臓ob esity
臓La ure
ig a
Wh ich
hold er
臓elder ly
臓p ays
臓compl ained
臓c rop
臓pro c
臓explos ive
臓F an
臓Ar senal
A uthor
ef ul
臓me als
臓( -
id ays
臓imag ination
臓ann ually
臓m s
as ures
H ead
ik h
m atic
臓boy friend
臓Com puter
臓b ump
臓sur ge
臓Cra ig
臓Kir k
D el
medi ate
臓scen arios
臓M ut
臓St ream
臓compet itors
脵 摩
臓Stan ford
臓Res ources
az ed
b age
臓organ is
臓Re lease
臓separ ately
臓ha bits
臓measure ments
臓Cl ose
臓accomp any
臓g ly
臓t ang
臓R ou
臓plug in
臓con vey
臓Chall enge
oot s
j an
臓cur s
臓Rel ations
ke eper
臓approach ing
p ing
Spe aking
臓arrang ement
臓V I
are ttes
臓affect ing
臓perm its
b ecause
臓u seless
臓H us
!! !!
臓destro ying
Un fortunately
臓fasc inating
S em
臓elect oral
臓trans parency
臓Ch aos
臓volunte er
臓statist ical
臓activ ated
ro x
We b
H E
臓Hamp shire
is ive
M ap
臓tr ash
臓Law rence
st ick
C r
臓r ings
EX T
臓oper ational
op es
D oes
臓Ev ans
臓witness ed
P ort
臓launch ing
ec onom
w ear
臓Part icip
um m
cul es
臓R AM
臓T un
臓ass ured
臓b inary
臓bet ray
臓expl oration
臓F el
臓ad mission
it ated
S y
臓av oided
臓Sim ulator
臓celebr ated
臓Elect ric
楼 艀
臓cl uster
itzer land
he alth
L ine
臓N ash
at on
臓sp are
臓enter prise
臓D IS
clud es
臓fl ights
臓reg ards
臓脙 墓
h alf
臓tr ucks
臓contact s
臓unc ons
臓Cl imate
臓imm ense
N EW
oc c
ect ive
臓emb od
臓pat rol
臓bes ide
臓v iable
臓cre ep
臓trig gered
ver ning
臓compar able
q l
臓g aining
ass es
臓( );
臓G rey
臓M LS
s ized
臓pros per
" ?
臓poll ing
臓sh ar
臓R C
臓fire arm
or ient
臓f ence
臓vari ations
g iving
臓P i
osp el
臓pled ge
臓c ure
臓sp y
臓viol ated
臓r ushed
臓stro ke
臓Bl og
sel s
臓E c
,' '
臓p ale
臓Coll ins
ter ror
臓Canad ians
臓t une
臓labor atory
臓n ons
t arian
臓dis ability
臓G am
臓sing er
al g
臓Sen ior
臓trad ed
臓War rior
臓inf ring
臓Frank lin
臓str ain
臓Swed ish
臓sevent h
臓B enn
臓T ell
臓synd rome
臓wond ered
id en
++ ++
ig o
臓pur ple
臓journal ism
臓reb el
臓f u
bl og
臓inv ite
ren cies
臓Cont act
Is rael
臓Cont ent
臓che er
臓bed room
臓Engine ering
臓Que ens
臓d well
臓Play Station
臓D im
臓Col on
l r
臓oper ates
臓motiv ation
US A
ast ered
C ore
臓Tr uth
ol o
OS E
臓Mem ory
臓pred ec
臓an arch
臓19 20
臓Y am
脙 篓
b id
臓gr ateful
臓exc itement
臓tre asure
臓long est
ct ive
臓des erves
臓reserv es
臓cop s
臓Ott awa
臓Egypt ian
ank ed
臓art if
臓hypot hesis
: /
臓purch asing
臓love ly
H P
臓div ide
臓strict ly
臓question ing
臓taxp ayers
臓J oy
臓roll s
臓He avy
臓p orts
臓mag netic
臓inf lamm
臓br ush
t ics
芒 莫拇
臓bott les
pp y
臓p add
茫膜 炉
m illion
臓devast ating
臓comp iled
臓med ication
臓tw elve
臓Per ry
Sp ace
im b
y our
臓le aked
臓T ar
臓un ity
臓infect ed
臓travel ed
ID E
臓Mc Donald
t xt
臓Pr inc
臓inter ven
臓Tai wan
臓P ow
臓be aring
臓Th read
臓z ones
iz ards
un ks
Ch apter
ll or
臓脗 路
臓w ounds
臓disc retion
臓succeed ed
ik ing
臓icon ic
C all
臓screen ing
臓M is
ict s
臓min isters
臓separ ation
Pl ayer
臓b ip
臓bel oved
臓count ing
臓E ye
ar ound
ing ing
臓table t
臓off ence
in ance
h ave
臓Inf o
臓Nin ja
臓protect ive
臓C ass
M ac
臓Qual ity
N orth
臓 ic
臓Cub a
臓Chron icle
臓Pro perty
臓fast est
ot os
臓G erm
OW N
臓bo om
臓Stan ley
ergus on
臓cle ver
臓ent ers
m ode
ter ior
臓S ens
臓lin ear
AR K
臓comp aring
臓pure ly
臓saf er
臓Pot ter
臓c ups
R T
臓gl uc
臓att ributed
臓du pl
臓P ap
臓prec ious
臓p a
iction ary
臓T ig
臓To o
ol utions
st an
臓rob ots
臓lob b
臓stat ute
臓prevent ion
w estern
16 0
臓Act ive
臓Mar ia
h al
N one
ell ar
臓K B
臓Part ners
臓Sing le
臓Follow ing
ang o
ac ious
臓th ou
臓k g
臓influ ential
臓Friend s
S ur
ain ted
臓for ums
臓st arter
臓citizens hip
臓E lection
on ge
ot ation
os ph
;; ;;
ut ical
p ur
ere n
臓accus ations
bit ious
ab bit
臓Or d
Post ed
ir k
臓sens itivity
ic he
臓Am y
臓F ab
臓sum mit
臓ped est
臓rub ber
臓agric ultural
臓can cel
A E
臓in aug
臓cont am
臓firm ly
i w
st age
臓K an
臓t ier
臓inv ention
臓transl ated
臓R ules
B ox
Tw itter
ID S
臓p izza
臓deb ug
臓D rop
v s
臓h orses
b ig
臓b oring
臓h ood
臓McC ain
at ched
臓Bro s
臓sk ip
臓ess ay
st at
臓Leg ends
臓am munition
au c
臓shoot er
臓un h
臓suppl ied
臓gener ic
臓S K
ib an
yr ics
臓25 5
臓clim bing
Form er
臓fl ip
臓jump ing
臓frust ration
臓Ter ry
臓neighborhood s
臓med ian
be an
臓br ains
Follow ing
臓sh aped
臓draw s
臓al tered
J ack
臓recip es
臓sk illed
we alth
ach i
e lection
臓behavi ors
de als
臓U ntil
F e
臓decl aration
mar ks
臓Bet ween
cel ona
臓res on
臓bub ble
Am ong
臓im perial
G S
臓femin ist
200 5
臓K yle
臓account ing
臓Te le
臓T yr
臓connect ing
臓re hab
臓P red
s im
臓meant ime
臓phys ician
M W
臓Camp bell
臓Br andon
臓contribut ing
臓R ule
臓We ight
臓N ap
臓inter active
臓v ag
臓hel met
臓Com b
f our
臓sh ipped
臓comple ting
臓P D
PD ATE
臓spread ing
臓sc ary
erv ing
臓G as
臓fr ank
s chool
臓rom antic
臓stab il
R ob
臓accur ately
臓ac ute
臓H ann
臓symbol s
臓civil ization
臓A W
臓light ning
臓cons iders
臓ven ue
臓 脳
臓o ven
臓S F
h is
臓n u
臓Lear n
臓pe oples
臓st d
臓sle e
臓s lic
臓Stat istics
臓cor ners
臓B aker
臓: )
ment ation
ol ver
臓laugh ing
臓T odd
ond e
臓H ills
臓n uts
臓W oman
pl ane
臓l iver
臓In side
S orry
臓agre es
臓fund ament
臓F isher
臓a uction
臓thread s
gl as
臓Bas ic
臓N at
臓lack ing
臓celeb ration
j u
臓s illy
E uro
臓t att
ight y
cont rolled
T est
臓Sing h
臓r age
臓rh yth
o ffic
臓Ph antom
臓head lines
臓respond ing
臓Mor ning
臓vit amin
臓boot s
臓S ite
al in
p i
臓vir al
臓U C
D ER
臓Se x
臓st ocks
c urrent
臓ch urches
臓R are
臓Mur phy
臓den ial
臓G aming
臓tou g
臓n ick
臓m akers
臓Ron ald
臓gener ous
臓D oc
臓Mor ris
臓transform ed
臓N ormal
臓10 4
臓Kick starter
臓Up on
On line
臓I RS
臓w rap
臓l oving
臓arri ves
臓D ue
臓he ter
臓M ade
臓rent al
臓belong s
臓att orneys
臓cro ps
臓mat ched
ul um
ol ine
10 9
臓dis par
臓buy ers
臓Cam bridge
臓eth ics
rou ps
臓just ified
臓marg inal
臓respect ed
win ning
臓nodd ed
臓Ser ge
臓Form er
C raft
######## ########
臓War ner
臓d ash
et e
臓ent ert
臓E scape
out heast
臓kn ees
臓B omb
臓r ug
P ass
臓att itudes
go vernment
臓Pri or
臓qual ities
臓not ification
臓Ph one
l ie
臓anticip ated
臓Com bat
臓Bar ry
臓198 2
Us ers
on er
臓comput ing
臓Connect icut
臓less er
臓pe ers
臓C u
臓techn ically
臓sub mission
臓Un iversal
臓man ually
our ge
臓respond ents
臓B TC
臓H ost
臓f are
臓B ird
臓rece ipt
al so
臓j ack
臓agric ulture
臓sk ull
臓! =
臓pass ive
臓C I
臓soc ieties
臓remind ed
臓inter ference
B uy
臓芒 木
g on
臓scrut iny
臓W itch
臓conduct ing
臓 茫磨
臓exch anges
臓Mit chell
臓inhab it
臓tw ist
B D
臓where ver
group on
臓j okes
臓Ben jamin
臓R andom
fr ame
臓L ions
臓highlight ed
臓Ark ansas
E nt
臓p ile
臓pre lim
g s
mind ed
臓fel ony
臓G A
臓L uck
臓pract ically
臓B os
臓act ress
D am
臓B ou
臓vis a
臓embed ded
臓hy brid
臓ear liest
臓soon er
s ocial
臓H A
臓ste ep
臓dis advant
臓explo it
臓E gg
臓Ult ra
臓necess ity
L ocal
ie ge
臓d ated
臓mass es
臓subsc ription
pl ess
臓an onym
臓presum ably
Bl ue
The ir
asket ball
臓Phil ip
臓com ed
load ed
r ane
臓ref lection
Ch ina
臓ext ends
臓form ing
臓und ers
200 1
臓gr at
臓concent rations
臓ins ulin
臓sec ular
臓wh ilst
臓win ners
Ad vertisements
臓deliber ately
臓Work ing
臓s ink
et ics
d ale
臓mand ate
臓g ram
臓vac ation
臓warn ings
ri pp
臓TH AT
臓comment ary
臓int u
臓a est
臓reason ing
臓break down
臓Z ombie
臓-- >
臓Polit ical
c ott
臓thr ust
臓techn ological
臓dec iding
臓traff icking
L ong
W elcome
pr ising
臓Commun ications
臓end ors
臓sw ift
臓metab ol
co ins
res a
臓HT TP
臓en roll
臓H appy
us r
int age
臓[ "
u ably
臓M aterial
臓repe al
Se pt
k h
臓Mod i
臓under neath
臓I L
sh ore
臓diagn osed
ace utical
臓sh ower
au x
臓Sw itch
臓Stre ngth
臓j ihad
n ational
臓tra uma
uss y
on i
臓cons olid
臓cal ories
臓F lynn
ag ged
16 8
臓P ink
臓fulf ill
臓ch ains
臓not ably
臓A V
L ife
臓Ch uck
m us
臓Ur ban
臓H end
臓dep osit
臓S ad
臓aff air
OR K
ie val
臓F DA
臓t rop
臓Over all
臓virt ue
臓satisf action
au nd
臓l un
臓Sw itzerland
臓Oper ation
pro cess
臓sh ook
臓count ies
le ased
臓Charl otte
1 12
臓trans cript
臓re dd
p ush
臓He y
臓An alysis
[ "
臓altern atives
ard less
臓ele ph
臓pre jud
臓Le af
H aving
臓H ub
臓express ions
臓Vol ume
臓shock ing
臓Red s
臓read ily
臓plan ets
ad ata
臓collaps ed
臓Mad rid
臓ir rit
i pper
臓En c
臓W ire
臓bu zz
臓G P
ash a
臓accident ally
ur u
臓frust rated
臓S A
臓hung ry
臓H uff
臓lab els
ant o
臓E P
臓bar riers
) |
臓Ber keley
臓J ets
臓p airs
臓L an
J ames
臓B ear
臓hum or
臓Liber ty
臓magn itude
臓ag ing
臓M ason
臓friends hip
umb ling
臓emer ge
臓newsp apers
臓am bitious
臓Rich ards
atern al
臓198 1
臓cook ies
臓sc ulpt
臓pur suit
L ocation
臓script s
p c
臓arrang ements
臓d iameter
臓l oses
am ation
臓l iqu
臓J ake
aret te
臓understand s
臓Z en
v m
臓appro ve
臓w ip
臓ult ra
臓int end
臓D I
asc ular
臓st ays
臓K or
臓K l
臓invest ing
L a
臓belie ving
b ad
m outh
臓taxp ayer
茫磨 磨
臓Que bec
臓l ap
臓Sw iss
d rop
臓dr ain
ir i
et c
ft en
臓N ex
臓st raw
臓scream ing
臓count ed
臓dam aging
臓amb assador
cent ury
臓pro x
臓arrest s
u v
il ateral
臓Ch arg
臓presc ribed
臓independ ently
臓f ierce
臓B aby
臓b rave
臓su its
= >
臓bas eline
臓R ate
臓is lands
臓( (
g reen
ix els
臓name ly
臓Vill age
th an
am y
V ersion
g mail
ential s
臓S ud
臓Mel bourne
臓arri ving
臓quant um
e ff
rop olitan
T ri
臓fun eral
臓I R
脙磨脙膜脙磨脙膜脙磨脙膜脙磨脙膜 脙磨脙膜脙磨脙膜脙磨脙膜脙磨脙膜
臓C ob
it ably
臓t urb
臓comb o
Re view
臓deploy ment
u ity
臓B ott
臓inv isible
臓render ing
臓unl ocked
臓a qu
臓Vlad imir
臓p ad
臓Br ain
臓Leg acy
dr agon
臓Kurd ish
臓sound ed
臓det ained
臓D M
g ary
臓d aughters
臓distur bing
uk a
臓Par ad
臓t ast
臓unf ortunate
臓u l
em in
臓attend ance
tr l
臓par ks
臓Mem orial
臓Al ice
oth y
gu ard
臓D ise
臓Sh an
臓For um
R ich
臓shif ted
ue z
臓l ighter
臓Mag n
臓c od
S ch
ham mad
P ub
3 50
臓P okemon
臓prot otype
臓un re
B ase
臓Stud ents
臓Rep ly
臓Commun ist
臓g au
臓Ty ler
I Z
臓particip ated
臓sup rem
臓Det ails
臓vessel s
ro d
臓t ribe
ke ep
臓assum ptions
臓p ound
臓cr ude
臓Av ailable
臓swim ming
臓in clusion
臓adv ances
c ulation
臓conserv ation
臓over d
臓Buff alo
Art icle
ed ge
臓aw a
臓Mad ison
臓sid ew
臓cat ast
臓K rist
uc le
臓High way
臓Ter ror
臓activ ation
臓uncons cious
臓Sat an
臓Sus an
ill ery
臓arr anged
i op
臓rum ors
ur ring
th ink
臓Ke ith
臓K ind
臓avoid ing
by n
n ut
臓Spe aker
r us
n ames
臓gu ilt
臓Olymp ics
臓sa il
臓M es
lev ant
臓Columb us
a ft
C ity
S outh
臓Har vey
臓P un
S everal
臓ment ally
臓imp ress
m ount
臓Ub untu
芒蘑亩芒蘑亩芒蘑亩芒蘑亩 芒蘑亩芒蘑亩芒蘑亩芒蘑亩
臓Super man
臓MP s
臓intent ions
臓R acing
臓like lihood
臓2 40
T otal
臓to ys
臓W atson
臓ur ge
L ear
臓P aper
臓occur ring
臓B eng
臓C ert
臓st ones
T im
臓Tw in
z b
臓D ynam
臓polit ician
k ens
臓Enter prise
UT ERS
臓ab ol
臓ref resh
臓arbit rary
pe ction
臓trou bles
臓} );
t v
臓pil ots
臓dist ribute
臓aud it
臓p ause
orig inal
臓r ivals
脗 拢
F ig
T L
ab il
ry ing
L in
ion ed
l on
臓f ancy
臓cr ashed
臓t ract
臓she d
臓cons ume
B ased
down load
in it
臓volt age
Int rodu
臓condem ned
臓Fin ance
res pect
臓ex cluded
臓establish ing
her ic
臓her itage
臓spect acular
臓un st
臓Snow den
臓L ane
S an
臓protect ions
st ruction
inc inn
臓mac ro
C ustom
ios ity
臓es p
臓function ing
臓m ush
臓p uzzle
臓eth ical
M al
臓go verning
臓F erguson
臓rest ored
臓st ressed
臓Coun ter
臓K as
cl ip
AN S
臓se iz
U K
by ss
old own
ap i
臓perman ently
oun ters
W est
Th rough
L ight
at oes
臓ne at
臓c ord
ure r
臓severe ly
臓A ven
臓inter rog
臓tri ple
G iven
N umber
臓ar ise
臓s her
pl ant
臓fl ower
臓C ou
臓at e
臓new er
b ul
臓mean while
臓L air
臓adjust ment
臓Cop yright
臓d ivers
i ological
臓gam ers
o at
臓histor ically
臓anal og
臓long time
臓pres cription
臓M ist
臓Hy per
臓M aine
臓De ity
臓multi pl
臓Re incarn
臓H yd
臓P ic
S il
r ants
臓C ris
. ;
( {
epend ence
臓rec y
ate ur
臓qu ad
臓gl ob
臓con ced
te am
臓capital ist
臓L ot
臓roy al
臓Cy ber
臓black s
met ic
ri v
臓D anny
臓sp o
臓R O
臓anim ated
rypt ed
臓Dep uty
臓rend ered
F E
臓stre ak
臓cloud s
臓Dou g
~~~~ ~~~~
臓disc our
臓Ve h
臓psych ology
臓J ourney
臓cry stal
臓Fro st
臓suspic ion
臓rel ate
or us
臓C rypt
臓N VIDIA
com ed
ut ing
incinn ati
臓vulner ability
ost ic
臓isol ation
臓cool ing
臓Coal ition
臓1 19
F our
臓De al
臓芒 墨
se mble
ram ent
臓Bar celona
臓10 2
臓coc aine
ocaly pse
F eb
ogen ic
臓mut ation
臓crypt oc
臓K el
臓G it
a is
臓s isters
AN K
臓activ ate
T er
臓d read
yl on
臓prop ri
A ust
臓Def ault
臓out door
臓she er
ce ive
臓g ently
脨 戮
Pro gram
臓芒 抹拇
臓ve gan
臓Cr us
臓respons ibilities
臓H R
OL D
臓prev ents
臓st iff
臓W ere
臓athlet ic
臓Sc ore
臓) :
臓column s
臓L oc
av ailable
臓F ram
臓S essions
臓compan ion
臓pack s
14 0
臓Kn ights
臓f art
臓stream s
臓sh ore
臓app eals
臓Per formance
h aul
臓St ra
臓N ag
10 3
臓Trans portation
B B
E v
z an
P ublic
臓tw in
uls ion
M ult
臓elect ro
臓stat ue
ation ally
臓N ort
臓ins pection
/ *
ig ue
臓comp assion
臓T ales
臓Ste in
臓Sc reen
臓B ug
臓L ion
g irl
臓withdraw al
臓object ives
臓blood y
臓prelim inary
臓j acket
臓dim ensions
臓C ool
臓Occ up
臓w reck
臓doub led
ank ing
臓19 75
臓glass es
臓W ang
pro v
P ath
connect ed
臓Mult i
臓Nor way
agon ist
臓fe ared
臓touch ing
臓arg uably
脗炉脗炉脗炉脗炉 脗炉脗炉脗炉脗炉
臓NC AA
che m
臓sp at
臓W WE
臓C el
ig ger
臓attack er
臓Jo in
ob ject
ett a
臓elim inated
d et
臓dest ruct
臓Luc as
ct uary
18 0
臓Br ady
臓Bl ues
B ay
au kee
臓tim eline
臓deleg ates
w ritten
uff icient
臓sh apes
Cop yright
ou ble
serv ice
臓p ione
臓colleg es
臓row s
臓sp ite
臓assess ed
3 60
臓le ase
臓confident ial
ck er
臓Man ning
臓V oice
臓se aled
臓calcul ate
N O
臓Ass istant
臓teen ager
ul ent
ather ine
臓m ock
臓d iamond
臓f est
臓sw itched
臓res ume
臓Pu erto
臓l anes
ir ation
臓Similar ly
臓ro d
臓S el
臓Pal ace
臓Lim ited
e ous
臓var iant
臓w ard
臓) )
Sh ow
OO K
A lex
臓N ep
br is
臓Wik ipedia
臓except ional
臓man ages
臓D raw
Ag ain
臓co pper
ut t
臓ex ports
臓port folio
臓elev ated
R ated
臓Other wise
臓T act
臓She l
臓T X
" 芒蘑亩
臓res ur
臓W a
ven ant
臓mon etary
pe ople
E mail
臓fif ty
臓S weet
臓Malays ia
臓conf using
臓R io
ud a
uten ant
" );
臓pra ised
臓vol umes
t urn
臓m ature
臓non profit
臓passion ate
臓Priv ate
臓10 3
臓desc end
莽 楼艀
uff y
head ed
Whe ther
ri en
ze ch
be it
臓ch rom
臓Mc M
臓d ancing
臓e leg
臓Not iced
11 5
臓advoc acy
ENT S
amb ling
臓Min or
臓F inn
臓prior ities
臓there of
臓St age
臓Rog ers
臓subst itute
臓J ar
臓Jeff erson
臓light ly
10 2
臓L isa
u its
ys ical
臓shif ts
臓d rones
臓work place
臓res id
ens ed
ah n
臓pref erences
ser ver
臓deb ates
d oc
臓God s
臓helicop ter
臓hon our
臓consider ably
ed ed
臓F emale
臓An ne
臓re un
臓F ace
臓Hall ow
臓Bud get
臓condem n
臓t ender
Pro f
ocr atic
臓Turn er
臓Ag ric
臓19 76
臓a pt
d isc
臓F ighter
臓A ur
臓gar bage
in put
臓K arl
臓Ol iver
臓L anguage
k n
N on
臓Cl ar
臓trad itions
臓ad vertisement
臓S or
臓arch ive
臓vill ages
7 50
臓implement ing
w aukee
臓diet ary
臓switch ing
Rep ublic
臓vel ocity
臓c it
臓A wards
臓fin ancing
臓last ed
) ]
臓rem inder
P erson
臓prec ision
臓design ers
臓F ried
臓B order
臓tr agic
臓w ield
臓initi atives
臓T ank
w er
臓jo ins
R o
in ery
臓ar row
臓gener ating
found er
臓sear ches
臓random ly
A ccess
臓b atch
臓p osed
l at
臓pursu ing
as a
臓test ified
form ing
臓Sh ar
w iki
臓E ither
S ometimes
臓sen ators
臓John ny
臓Tal iban
臓G PS
":" /
茫模庐 氓
臓analy zed
臓Rub io
臓Move ment
op ard
ii i
St and
f ight
臓ign oring
i ang
臓G N
so ever
臓ST AT
臓ref using
臓swe at
臓b ay
P ORT
ir med
ak y
臓dis pro
臓label ed
臓10 8
H ello
臓ple asant
ab a
臓tri umph
臓ab oard
臓inc om
臓C row
le tt
臓fol k
臓ch ase
` `
臓Br us
臓te ens
c ue
臓ter rain
h yd
il ight
OR Y
Su pport
ew s
ll i
rain ts
臓C and
臓ab used
ach ment
l arg
B as
臓C ancer
臓19 78
臓supp orter
ac cess
臓Ter min
臓T ampa
臓AN Y
臓new est
臓Crim inal
ed u
臓19 30
臓adm its
臓end e
臓fail ures
ur ate
ful ness
cy cl
臓Sub ject
臓inf inite
th ree
W A
p it
臓Inst all
R ad
ili ation
G M
臓contin ent
臓accommod ate
臓Cl ay
臓p up
臓F unction
臓ham mer
臓Albert a
臓rev ised
臓minor ities
臓measure ment
Con nell
臓dis able
臓M ix
In cre
臓for k
臓R osen
臓impl ies
umb lr
AN G
臓prote ins
臓agg ression
臓facilit ate
S N
臓illeg ally
u er
臓acad em
臓p uzz
臓Sh ift
p ay
oll o
臓aud iences
B uild
臓no ble
臓synt ax
芒 暮魔
臓be am
臓B ed
臓A ld
臓orig ins
v ideo
臓19 77
臓Ass ault
臓gar age
Te am
臓ver dict
臓d war
臓Virt ual
e vent
Ke ep
臓sent iment
臓wild life
sh irt
臓b urg
臓recommend ation
rep resent
臓gall ery
own ers
臓sch olar
臓conven ience
臓Sw ift
臓conv inc
C ap
臓war fare
臓Vis ual
臓const itute
臓ab ort
臓We ather
臓Look ing
臓H em
臓mart ial
臓inc oming
et ition
臓toler ance
臓Cre ated
臓fl ows
臓E lder
臓soul s
臓f oul
臓P ain
臓C AN
臓2 20
b c
he nd
臓gen ius
R eal
臓W r
omet er
p ad
臓lim iting
臓S i
臓L ore
臓Ad ventures
臓var ied
D isc
f in
臓Person al
Ch ris
臓inv ented
臓d ive
臓R ise
臓o z
臓Com ics
臓exp ose
臓Re b
let ters
s ite
im ated
臓h acking
臓educ ated
臓Nob ody
臓dep ri
臓incent ive
茫膜 路
臓overs ight
臓trib es
臓Belg ium
臓licens ing
our t
Produ ct
ah l
臓G em
臓special ist
臓c ra
ann ers
臓Cor byn
臓19 73
RE AD
臓sum mar
臓over look
臓App lication
臓in appropriate
臓download ed
Q ue
臓B ears
臓th umb
臓Char acter
臓Reincarn ated
臓S id
臓demonstr ates
s ky
臓Bloom berg
臓Ar ray
臓Res ults
臓Four th
臓ED T
臓O scar
c end
臓10 6
臓N ULL
臓H ERE
m atch
臓Br un
臓gluc ose
ie g
eg u
臓cert ified
臓rel ie
臓human itarian
臓pr ayers
K ing
臓n an
h ou
10 8
ul u
臓renew able
臓distingu ish
臓d ense
臓V ent
臓Pack age
臓B oss
臓edit ors
臓m igr
T ra
臓Pet ers
臓Ar ctic
200 4
臓C ape
臓loc ally
臓last ing
臓hand y
. ).
P an
臓R ES
Ind ex
臓t ensions
臓former ly
臓ide ological
臓sens ors
臓deal ers
臓def ines
S k
臓proceed s
臓pro xy
az ines
臓B ash
臓P ad
臓C raft
eal ous
臓she ets
omet ry
J une
cl ock
T T
臓The atre
臓B uzz
臓ch apters
臓mill enn
臓d ough
臓Congress ional
臓imag ined
av ior
臓clin ic
臓19 45
臓hold er
ro ot
oles ter
臓rest art
B N
臓Ham as
臓J ob
臓or b
臓r am
臓discl ose
臓transl ate
臓imm igrant
臓annoy ing
臓treat y
an ium
臓Te a
臓Leg ion
臓crowd s
臓B ec
臓A er
oh yd
B ro
Look ing
臓l bs
臓agg ress
臓se am
臓inter cept
臓M I
mer cial
act iv
臓C it
臓dim ension
臓consist ency
臓r ushing
臓Dou glas
臓tr im
Inst all
ick er
臓sh y
10 6
臓ment ions
pe lled
臓T ak
c ost
臓class room
臓fort une
dri ven
臓un le
臓Whe el
臓invest or
臓M asters
k it
臓associ ations
臓Ev olution
op ing
us cript
臓prov incial
臓Wal ter
av i
S O
臓un limited
Eng lish
臓C ards
臓Eb ola
ne red
臓reven ge
臓out right
um per
臓f itting
臓Sol id
臓form ally
臓problem atic
臓haz ard
臓enc ryption
臓straight forward
臓A K
臓p se
臓Or b
臓Ch amber
臓M ak
Cont ents
臓loyal ty
臓l yrics
臓Sy m
臓wel comed
臓cook ed
臓mon op
臓n urse
臓mis leading
臓e ternal
臓shif ting
臓+ =
V is
臓inst itutional
ill ary
臓p ant
VER T
臓A CC
臓En h
臓inc on
臓RE UTERS
臓don ated
芒蘑娄芒蘑娄 芒蘑娄芒蘑娄
In tern
臓exhib it
臓t ire
臓R ic
臓Ch ampion
臓Mu hammad
N ING
臓Soc cer
臓mob ility
臓vary ing
臓M ovie
臓l ord
o ak
F ield
臓ve ctor
us ions
臓sc rap
臓en abling
m ake
T or
. *
| |
臓We bsite
臓N PC
臓social ist
臓Bill y
臓Add itional
臓c argo
臓far ms
臓So on
臓Pri ze
臓mid night
臓9 00
se en
臓Sp ot
臓she ep
臓spons ored
臓H i
臓J ump
臓19 67
Micro soft
臓Ag ent
臓ch arts
d ir
臓adj acent
臓tr icks
臓man ga
臓ex agger
/ >
foot ball
臓F CC
G C
臓T ier
and ra
OU ND
% ),
臓fru its
V C
臓A A
R ober
臓mid st
芒 墓
ank a
臓legisl ature
臓Ne il
臓tour ists
" "
臓War ning
臓Never theless
臓Offic ial
臓Wh atever
臓m old
臓draft ed
臓subst ances
臓bre ed
臓t ags
臓T ask
臓ver b
臓manufact ured
com ments
臓Pol ish
Pro v
臓determin es
Ob ama
k ers
臓utter ly
臓se ct
sc he
臓G ates
臓Ch ap
臓al uminum
臓z ombie
臓T ouch
臓U P
臓satisf y
臓pred omin
asc ript
臓elabor ate
臓19 68
臓meas uring
臓V ari
any ahu
臓s ir
ul ates
id ges
ick ets
臓Sp encer
T M
oub ted
臓pre y
臓install ing
臓C ab
re ed
re ated
Su pp
臓wr ist
臓K erry
10 7
臓K le
臓R achel
臓c otton
臓A RE
臓E le
Cont rol
臓load s
臓D od
an as
b one
臓class ical
臓Reg ional
臓Int eg
V M
臓des ires
臓aut ism
support ed
臓M essage
臓comp act
writ er
臓10 9
臓Hur ricane
c ision
臓cy cles
臓dr ill
臓colle ague
臓m aker
G erman
臓mist aken
S un
臓G ay
臓what soever
臓sell s
臓A irl
l iv
臓O ption
臓sol ved
臓se ctors
臓horizont al
臓equ ation
臓Sk ill
臓B io
g ement
臓Sn ap
臓Leg al
臓tradem ark
臓make up
臓assemb led
臓sa ves
臓Hallow een
臓Ver mont
臓FR OM
臓far ming
臓P odcast
accept able
臓Hig her
臓as leep
ull ivan
臓refere n
臓Le v
臓bul lets
ok o
H C
臓st airs
臓main tains
臓L ower
臓V i
臓mar ine
臓ac res
臓coordin ator
臓J oh
臓counterpart s
臓Brother s
臓ind ict
b ra
臓ch unk
臓c ents
H ome
臓Mon th
臓according ly
if les
臓Germ ans
臓Sy n
H ub
臓ey eb
芒亩蘑芒亩蘑 芒亩蘑芒亩蘑
臓r anges
臓Holl and
臓Rob ot
f c
M ike
臓pl asma
臓sw ap
臓ath lete
臓R ams
,' "
臓infect ions
臓cor rid
臓v ib
臓pat ches
臓tradition ally
臓revel ation
臓swe ep
臓gl ance
臓in ex
200 3
臓R aw
work ing
os ures
臓D at
臓Lyn ch
臓le verage
臓Re id
臓correl ation
ian ces
av ascript
臓rep ository
ret ty
臓19 72
24 0
臓o un
p ol
臓Re ed
臓tact ical
is ite
App le
臓Qu inn
臓rap ed
ill o
Euro pe
臓algorith ms
臓Rod rig
i u
臓ill um
臓f ame
臓introdu cing
臓del ays
臓Raid ers
臓wh istle
臓novel s
臓Re ally
臓der iv
臓public ations
臓Ne ither
臓Com merce
臓a ston
l anguage
Not es
臓R oth
臓F ear
臓m ate
臓par ade
臓Q B
臓man eu
臓C incinnati
m itting
臓wa ist
臓R ew
臓disc ont
脨 掳
臓st aring
臓al ias
臓sec urities
臓toile t
臓J edi
臓un law
v ised
//// ////
] (
臓We iss
臓pre st
臓Comp an
臓mem o
臓Gr ace
J uly
臓El ite
cent er
臓St ay
臓gal axy
臓to oth
臓S ettings
臓subject ed
茫膜 娄
臓line back
臓retail ers
臓W ant
臓d angers
A ir
臓volunt ary
ew ay
臓interpret ed
ot ine
脙 搂
臓p el
Serv ice
臓Event ually
臓care ers
臓threat en
臓mem or
臓Brad ley
anc ies
s n
臓Un known
N ational
臓sh adows
ail and
臓D ash
Every one
izz ard
M arch
= (
臓pull s
臓str anger
臓back wards
臓Bern ard
imens ional
臓ch ron
臓theoret ical
k top
臓w are
臓Invest ig
臓In iti
臓Oper ations
o ven
oc ide
* /
臓fl ames
臓C ash
sh it
臓c ab
臓An aly
臓Se ah
臓defin ing
臓order ing
臓imm un
臓pers istent
AC H
Russ ian
m ans
臓h ind
臓phot ography
脗 漏
臓h ug
臓10 7
臓H ence
i ots
ude au
臓subsid ies
臓routine ly
臓Dev ice
it ic
臓disg ust
land er
臓19 40
臓assign ment
臓B esides
w ick
臓D ust
us c
struct ed
11 1
de velop
臓f ond
臓inter section
臓dign ity
臓commission er
With out
re ach
臓cart oon
臓sc ales
茫磨 艃
F IG
臓surve ys
臓Indones ia
臓art work
臓un ch
臓cy cling
un ct
au er
or ate
臓Ob viously
臓character ized
fe ld
臓aff irm
臓inn ings
臓 茅
臓al iens
臓cl oth
et ooth
臓C ertain
脗 搂
臓dig est
k now
臓X L
臓predict ions
臓d in
W AR
臓after math
Ex ample
臓Su ccess
臓Th r
IG N
臓min er
B us
臓cl arity
heim er
臓O UT
臓S end
臓Circ le
臓D iet
臓pron ounced
臓creat ors
臓earthqu ake
atter y
ge ons
臓o d
臓lay ing
or p
U lt
pro ject
臓under min
臓sequ el
S am
臓Dark ness
臓re ception
b ull
Y S
臓V ir
臓sequ ences
臓Co in
臓out fit
臓W ait
1 19
臓del ivers
.... ..
臓bl own
臓E sc
臓M ath
per m
臓U l
臓gl im
臓fac ial
臓green house
臓to kens
/ -
臓Ann ual
臓ON E
臓teen age
臓Phys ical
臓L ang
臓C elt
臓su ed
ivid ually
臓pat ience
ch air
reg ular
臓a ug
in v
ex cept
臓L il
臓n est
f d
s um
臓Ch ase
Russ ia
臓Jenn ifer
臓off season
Over all
F ore
臓r iot
A ud
form er
臓defend ers
臓C T
iot ic
rib ly
臓autom ated
臓pen is
臓ins ist
臓di agram
臓S QL
臓G arc
臓w itch
cl ient
ier ra
am bers
臓rec ount
f ar
V ery
oster one
臓appreci ated
臓Per fect
S ection
臓d oses
oca ust
臓cost ly
臓g rams
臓Sh i
臓wrest ling
臓19 71
臓tro phy
臓n erve
臓K az
臓Exper ience
臓pled ged
臓play back
臓creat ivity
by e
臓attack ers
臓hold ers
臓Co ach
臓Ph D
臓transf ers
臓col ored
臓H indu
臓d rown
臓list ened
臓W A
ias m
P O
臓appeal ing
臓discl osed
臓Ch icken
ag ging
臓ple aded
臓nav igation
臓Return s
臓[ [
R OR
E A
臓photograp her
臓R ider
ipp ers
臓sl ice
臓e rect
臓he d
iss ance
臓Vik ings
ur ious
臓app et
oubted ly
Ch ild
臓authent ic
o os
臓M aking
臓announ cing
臓b od
臓met er
臓N ine
臓R ogue
臓work force
臓renew ed
臓organis ations
ac s
P LE
Sh ort
臓comp ounds
臓Vis it
臓en velop
ear th
臓support ive
gg le
臓Brus sels
臓Gu ild
Cre ate
RE L
臓aver aged
臓19 69
ri ages
臓length y
臓forg ot
O kay
臓E rd
臓deal er
臓rec ession
D D
臓desper ately
臓hun ger
臓st icks
臓m ph
臓F aith
臓intention ally
臓dem ol
ue ller
臓S ale
臓de bris
s pring
臓le ap
>> >>
臓contain ers
se lling
rane an
atter ing
臓comment ed
臓C M
on ut
臓wood s
es pecially
臓organ ize
iv ic
臓Wood s
ang a
s qu
臓m aj
am on
臓ax is
臓19 74
臓Den mark
臓war rior
臓P and
臓out lined
臓B O
ins ula
z illa
eb ook
臓d are
臓sear ched
臓nav igate
S n
writ ing
臓un ited
J apan
臓He brew
臓fl ame
臓rel ies
臓catch ing
臓Sh o
臓imprison ment
臓p ockets
臓clos ure
臓F am
t im
ade qu
Act ivity
臓recru iting
臓W ATCH
臓Argent ina
d est
臓apolog ize
or o
臓lack s
臓tun ed
臓Griff in
臓inf amous
臓celebr ity
ss on
臓 ----------------------------------------------------------------
臓Is is
臓Dis play
臓cred ibility
臓econom ies
臓head line
臓Cow boys
臓ind ef
臓l ately
臓incent ives
but ton
臓M ob
A ut
臓res igned
臓O m
c amp
臓prof iles
臓sche mes
olph ins
ay ed
Cl inton
en h
臓Y ahoo
臓ab st
臓an k
su its
臓w ished
臓Mar co
udd en
臓sp here
臓B ishop
臓incorpor ated
臓Pl ant
11 4
臓h ated
p ic
臓don ate
臓l ined
臓be ans
臓steal ing
臓cost ume
臓sher iff
臓for ty
臓int act
臓adapt ed
臓trave lling
b art
臓nice ly
臓dri ed
臓sc al
os ity
NOT E
臓B h
臓Bron cos
臓I gn
臓int imate
臓chem istry
臓opt imal
D eb
臓Gener ation
臓] ,
ich i
臓W ii
臓YOU R
vent ions
W rite
臓pop ul
un ning
臓W or
V ol
臓qu een
head s
K K
臓analy ze
op ic
ear chers
臓d ot
leg raph
ast ically
臓upgr ades
臓ca res
臓ext ending
臓free ze
臓in ability
臓org ans
臓pret end
臓out let
11 3
ol an
臓M all
ul ing
t alk
臓express ing
臓Al ways
臓Be gin
f iles
臓lic enses
% %
臓M itt
臓fil ters
臓Mil waukee
G N
臓unf old
M o
臓nut rition
pp o
B o
臓found ing
臓under mine
臓eas iest
臓C zech
臓M ack
臓sexual ity
臓N ixon
W in
臓Ar n
臓K in
茫膜 拢
ic er
臓fort un
臓surf aces
agh d
臓car riers
臓P ART
臓T ib
臓inter val
臓frust rating
臓Sh ip
臓Ar med
ff e
臓bo ats
臓Ab raham
in is
臓su ited
th read
i ov
ab ul
臓Venezuel a
臓to m
su per
臓cast le
alth ough
iox ide
ec hes
臓evolution ary
臓negoti ate
臓confront ed
Rem ember
臓17 0
S uch
臓9 11
m ult
臓A byss
ur ry
ke es
spe c
臓Barb ara
臓belong ing
臓vill ain
ist ani
臓account able
臓port ions
臓De cl
U r
臓K ate
g re
臓mag azines
UC K
臓regul ate
om on
臓Al most
臓over view
臓sc ram
臓l oot
臓F itz
臓character istic
臓Sn ake
s ay
臓R ico
臓tra it
臓Jo ined
au cus
臓adapt ation
臓Airl ines
臓arch ae
臓I de
臓b ikes
臓liter ary
臓influ ences
臓Us ed
C reat
臓ple a
臓Def ence
臓Ass ass
臓p ond
UL T
) "
臓eval uated
臓ob taining
臓dem ographic
臓vig il
ale y
臓sp ouse
臓Seah awks
resp ons
臓B elt
um atic
臓r ises
run ner
臓Michel le
臓pot ent
r ace
臓P AC
F ind
olester ol
IS S
臓Introdu ced
ress es
ign ment
O s
臓T u
臓De x
ic ides
臓spark ed
臓Laur a
臓Bry ant
臓sm iling
臓Nex us
臓defend ants
臓Cat al
臓dis hes
sh aped
臓pro long
m t
( $
茫蘑 膜
臓calcul ations
臓S ame
臓p iv
H H
臓cance lled
臓gr in
臓territ ories
ist ically
C ome
臓P arent
Pro ject
臓neg lig
臓Priv acy
臓am mo
LE CT
olute ly
臓Ep ic
臓mis under
w al
Apr il
m os
path y
臓C arson
臓album s
臓E asy
臓pist ol
< <
臓\ (
t arget
hel p
臓inter pre
cons cious
臓H ousing
臓J oint
12 7
臓be ers
s cience
臓Fire fox
effect ive
臓C abin
臓O kay
臓App lic
臓space craft
臓S R
ve t
臓Str ange
S B
臓cor ps
iber al
e fficient
臓preval ence
臓econom ists
11 8
Th read
ord able
OD E
臓C ant
=- =-
if iable
臓A round
臓po le
臓willing ness
CL A
臓K id
臓comple ment
臓sc attered
臓in mates
臓ble eding
e very
臓que ue
臓Tr ain
臓h ij
臓me lee
ple ted
臓dig it
臓g em
offic ial
臓lif ting
脨 碌
Re qu
it utes
臓pack aging
臓Work ers
h ran
臓Leban on
ol esc
臓pun ished
臓J uan
臓j am
臓D ocument
臓m apping
ic ates
臓inev itably
臓van illa
臓T on
臓wat ches
臓le agues
臓initi ated
deg ree
port ion
臓rec alls
臓ru in
臓m elt
I AN
臓he m
Ex p
臓b aking
臓Col omb
at ible
臓rad ius
pl ug
臓I F
et ically
臓f ict
H ER
臓T ap
atin um
臓in k
臓co h
臓W izard
b oth
te x
臓sp ends
臓Current ly
臓P it
臓neur ons
ig nt
臓r all
臓bus es
b uilding
臓adjust ments
臓c ried
ibl ical
att ed
臓Z ion
臓M atter
臓med itation
臓D ennis
臓our s
臓T ab
臓rank ings
ort al
臓ad vers
臓sur render
臓G ob
ci um
om as
im eter
臓multi player
臓hero in
臓optim istic
臓indic ator
臓Br ig
臓gro cery
臓applic ant
臓Rock et
v id
Ex ception
p ent
臓organ izing
臓enc ounters
臓T OD
臓jew el
S ave
臓Christ ie
臓he ating
臓l azy
臓C P
臓cous in
Con fig
臓reg ener
臓ne arest
臓achie ving
EN S
th row
臓Rich mond
ant le
200 2
臓an ten
b ird
13 3
臓n arc
r aint
un ny
臓Hispan ic
ourn aments
臓prop he
臓Th ailand
臓T i
臓inject ion
臓inher it
rav is
臓med i
臓who ever
臓DE BUG
G P
臓H ud
C ard
p rom
臓p or
臓over head
L aw
臓viol ate
臓he ated
臓descript ions
臓achieve ments
臓Be er
臓Qu ant
W as
臓e ighth
臓I v
臓special ized
U PDATE
臓D elta
P op
J ul
臓As k
oph y
臓news letters
臓T ool
臓g ard
臓Conf eder
臓GM T
臓Ab bott
臓imm unity
臓V M
Is lam
臓impl icit
w d
臓19 44
rav ity
omet ric
臓surv iving
ur ai
臓Pr ison
臓r ust
臓Sk etch
臓be es
臓The ory
臓mer it
T ex
ch at
臓m im
臓past e
臓K och
臓ignor ance
臓Sh oot
臓bas ement
Un ited
臓Ad vis
he ight
臓f oster
臓det ain
in formation
臓ne ural
' ;
臓prov es
all ery
臓inv itation
um bers
臓c attle
臓bicy cle
z i
臓consult ant
臓ap ology
臓T iger
臓12 3
99 9
臓ind ividually
r t
ig ion
臓Brazil ian
臓dist urb
臓entreprene urs
臓fore sts
cer pt
pl ates
p her
clip se
臓tw itter
臓ac ids
ograph ical
h um
臓B ald
if ully
臓comp iler
臓D A
臓don or
as i
臓trib al
l ash
臓Con fig
臓applic ants
臓sal aries
13 5
Put in
臓F ocus
ir s
臓misc onduct
臓H az
臓eat en
M obile
Mus lim
臓Mar cus
v iol
臓favor able
臓st ub
ad in
臓H ob
臓faith ful
臓electron ics
臓vac uum
w ait
back ed
econom ic
d ist
臓ten ure
臓since re
臓T ogether
臓W ave
臓prog ression
臓den ying
臓dist ress
br aska
th ird
臓mix ing
臓colon ial
臓priv ately
臓un rest
atern ity
臓prem ises
ant i
greg ation
臓lic ence
臓H ind
臓Sam uel
臓convinc ing
臓A ce
臓R ust
臓Net anyahu
臓hand les
臓P atch
orient ed
ah o
臓G onz
臓hack ers
claim er
臓custom s
臓Gr an
f ighters
臓l uc
臓man uscript
aren thood
臓dev il
臓war riors
臓off enders
Will iam
臓hol idays
臓night mare
臓le ver
iff erent
St at
臓exhib ition
put ed
臓P ure
臓al pha
臓enthus iasm
臓Represent atives
E AR
臓T yp
臓whe at
臓Al f
臓cor rection
臓ev angel
AT T
M iss
臓s oup
臓impl ied
par am
臓sex y
臓L ux
臓rep ublic
p atch
ab lish
臓ic ons
臓father s
臓G ET
臓Car ib
臓regul ated
臓Co hen
臓Bob by
臓n er
臓b ent
vent ory
臓Al ong
臓E ST
臓Wall ace
臓murd ers
r ise
ke ll
臓Common wealth
臓n asty
et a
臓M IT
臓administ ered
臓genuine ly
Ed itor
n ick
臓hyd ro
**************** ****************
臓B le
臓fin es
臓g orge
aus ible
r h
臓app le
ment ioned
臓ro pe
ot yp
H R
臓disappoint ing
臓c age
n ik
臓doub ts
臓F REE
print s
臓M UST
臓vend ors
臓In qu
臓liber als
臓contract or
臓up side
child ren
臓trick y
臓regul ators
charg ed
l iter
臓 ***
臓reb ell
l ang
臓loc als
臓phys icians
臓he y
ar se
t m
臓Le x
臓behavior al
success ful
F X
臓br ick
ov ic
臓con form
臓review ing
臓ins ights
臓bi ology
臓Rem ove
臓Ext ra
臓comm itting
indu ced
ignt y
ig m
臓at omic
Comm on
臓E M
臓P ere
臓It ems
e h
臓pres erved
臓H ood
臓prison er
臓bankrupt cy
臓g ren
us hes
臓explo itation
臓sign atures
臓fin an
] ,"
臓M R
臓me g
rem lin
臓music ians
臓select ing
臓exam ining
IN K
l ated
H i
臓art ic
臓p ets
臓imp air
臓M AN
臓table ts
in clude
R ange
臓ca ut
臓log s
臓mount ing
臓un aware
臓dynam ics
臓Palest ine
臓Qu arter
臓Pur ple
臓m a
臓Im port
臓collect ions
ci ation
臓success or
臓cl one
臓aim ing
臓poss essed
臓stick ing
臓sh aking
臓loc ate
臓H ockey
T urn
17 0
臓fif teen
臓Har rison
臓continu ously
臓T C
臓Val ent
臓Res cue
臓by pass
am ount
臓m ast
臓protect s
臓art istic
臓somet ime
臓sh oe
臓shout ed
ific ant
et itive
臓Reg ister
臓J in
臓concent rated
ling ton
on ies
臓gener ator
yr im
臓Ar men
臓clear ing
id o
臓T W
al ph
臓lad ies
H ard
臓dial og
臓input s
忙 木
臓pos es
臓sl ots
臓Prem ium
臓le aks
臓boss es
臓11 3
c ourse
A cc
臓New ton
臓Aust ria
臓M age
臓te aches
ab ad
臓we ars
臓c yl
臓cur se
臓S ales
臓W ings
臓p sy
臓g aps
臓Ice land
臓P interest
臓land lord
臓defin itions
臓K er
臓sufficient ly
臓P ence
臓Arch itect
臓sur pass
臓11 4
臓super hero
臓Dise ase
臓pri ests
臓C ulture
臓defin itive
臓secret ly
臓D ance
inst all
ch ief
臓Jess ica
W ould
Up dated
臓lock er
臓K ay
臓mem orial
猫 娄
f at
臓dis gu
臓flav ors
臓Base ball
臓Res istance
臓k icks
臓en v
臓teen agers
D ark
臓C AR
臓h alt
臓L G
臓Gab riel
臓fe ver
臓s atur
臓m all
臓affili ate
臓S leep
臓Spe cific
臓V el
臓j ar
臓Sac red
臓Ed wards
臓A CL
臓ret ained
臓G iant
臓lim itation
in ces
臓ref usal
臓T ale
臓But ler
臓acc idents
臓C SS
臓import ed
臓Cop y
脦 卤
ER T
z el
臓div isions
h ots
臓Al b
臓D S
Load er
W ashington
at isf
臓Creat ive
\ .
臓Aut om
red ict
臓recept or
臓Carl os
Met hod
ok a
臓mal icious
臓ste pping
, [
臓D ad
臓att raction
臓Effect s
臓Pir ate
臓C er
臓Indust ry
臓R ud
臓char ter
臓d ining
臓ins ists
臓config ure
臓( #
臓Sim ple
臓Sc roll
UT C
17 5
臓K on
臓market place
臓 茫膜
臓ref res
臓g ates
er red
臓P od
臓beh ave
Fr ank
n ode
臓endors ed
he tt
as ive
臓Hom eland
臓r ides
臓Le ave
er ness
臓flood ing
A FP
臓ris en
臓contin ually
臓un anim
臓Cont ract
臓P as
臓gu ided
臓Ch ile
b d
臓su cc
pt ic
臓comm ittees
臓L uther
臓Any one
臓s ab
12 4
臓p ixel
臓B ak
臓T ag
臓Benn ett
En ter
sm all
臓President ial
臓p ul
臓contr ace
arch ive
臓coast al
臓K ids
19 2
芒蘑 虏
ick y
ING TON
臓w olf
臓St alin
T ur
id get
am as
臓Un less
臓spons or
臓mor ph
臓Cho ose
臓run ner
臓un bel
臓m ud
臓Man a
臓dub bed
臓g odd
ure rs
wind ow
臓rel ied
臓celebr ating
os c
臓13 5
臓lobb ying
臓incom plete
臓restrict ion
臓inc ap
it us
臓expect ation
臓Ap ollo
臓int ens
臓syn c
G H
臓manip ulation
B Y
臓spe ar
臓bre asts
臓vol can
il ia
M aterial
臓form ats
臓B ast
臓parliament ary
臓sn ake
臓serv ants
臓Tr udeau
臓Gr im
臓Arab ic
臓SC P
臓Boy s
st ation
臓prospect ive
ord e
in itialized
臓b ored
AB LE
臓access ed
臓tax i
臓She ll
aid en
urs ed
in ates
臓Ins urance
臓Pet e
Sept ember
6 50
臓ad ventures
臓Co ver
臓t ribute
臓sk etch
臓em power
臓 脴
臓Gl enn
臓D aw
= \"
臓Polit ics
臓gu ides
臓d ioxide
臓G ore
臓Br ight
臓S ierra
臓val ued
c ond
臓po inter
Se lect
臓risk y
臓absor b
im ages
臓ref uses
臓bon uses
__ _
臓h ilar
臓F eatures
2 20
臓Collect or
F oot
臓19 64
cul us
臓d awn
臓work out
臓L O
臓philosoph ical
臓Sand y
臓You th
臓l iable
A f
bl ue
臓overt urn
less ness
臓Trib une
臓In g
臓fact ories
臓cat ches
臓pr one
臓mat rix
臓log in
臓in acc
臓ex ert
s ys
臓need le
臓Q ur
臓not ified
ould er
t x
臓remind s
臓publisher s
臓n ort
臓g it
臓fl ies
臓Em ily
臓flow ing
臓Al ien
臓Str ateg
臓hard est
臓mod ification
AP I
臓M Y
臓cr ashes
st airs
n umber
臓ur ging
ch annel
臓Fal con
臓inhabit ants
臓terr ifying
臓util ize
臓ban ner
臓cig arettes
臓sens es
臓Hol mes
臓pract ition
臓Phill ips
ott o
臓comp ile
Mod el
臓K o
臓[ ]
Americ ans
臓Ter ms
臓med ications
臓An a
臓fundament ally
臓Not ice
臓we aker
臓 0000
臓gar lic
臓out break
臓econom ist
臓B irth
臓obst acles
ar cer
臓Or thodox
臓place bo
臓C rew
asp berry
臓Ang els
臓dis charge
臓destruct ive
11 7
臓R ising
臓d airy
l ate
臓coll ision
臓Tig ers
ean or
ocument ed
臓In valid
臓d ont
臓L iter
臓V a
臓hyd rogen
臓vari ants
臓Brown s
臓19 65
臓ind igenous
臓trad es
臓remain der
臓swe pt
臓Imp act
臓red ist
臓un int
grad uate
茫磨 姆
臓W ILL
茫模庐 莽
臓Crit ical
臓f isher
臓v icious
臓revers ed
Y ear
臓S ox
臓shoot ings
臓fil ming
臓touchdown s
ai res
m el
臓grand father
臓affect ion
ing le
臓over ly
Add itional
臓sup reme
臓Gr ad
臓sport ing
臓mer cy
臓Brook s
ount y
臓perform s
臓tight ly
臓dem ons
臓kill ings
臓fact ion
臓Nov a
aut s
臓und oubtedly
ar in
臓under way
ra k
臓l iv
臓Reg ion
臓brief ing
s ers
cl oud
臓M ik
us p
臓pred iction
az or
臓port able
臓G and
臓present ing
臓10 80
脗 禄
ush i
臓Sp ark
there um
臓just ification
臓N y
臓contract ors
ming ham
臓St yle
氓 魔
臓Chron icles
臓Pict ure
臓prov ing
臓w ives
set t
臓mole cules
臓Fair y
臓consist ing
臓p ier
al one
in ition
臓n ucle
j son
臓g otta
臓mob il
臓ver bal
ar ium
臓mon ument
uck ed
臓25 6
T ech
mine craft
臓Tr ack
臓t ile
臓compat ibility
as is
臓s add
臓instruct ed
臓M ueller
臓le thal
臓horm one
臓or che
el se
臓ske let
臓entert aining
臓minim ize
ag ain
臓under go
臓const raints
臓cig arette
臓Islam ist
臓travel s
臓Pant hers
l ings
C are
臓law suits
ur as
臓cry st
臓low ered
臓aer ial
臓comb inations
臓ha un
臓ch a
臓v ine
臓quant ities
臓link ing
b ank
臓so y
B ill
臓Angel a
臓recip ient
臓Prot est
臓s ocket
臓solid arity
臓芒 抹
m ill
臓var ies
臓Pak istani
Dr agon
臓un e
臓hor izon
脗艂脗艂脗艂脗艂 脗艂脗艂脗艂脗艂
臓prov inces
臓frank ly
臓enact ed
not es
[ '
臓19 2
ocr acy
臓endorse ment
臓over time
Tr ue
L ab
lic ted
臓D NC
臓be ats
臓Jam ie
15 2
臓IN T
Cont act
臓account ed
h ash
臓Pack ers
p ires
臓les bian
臓amend ments
臓hop eful
臓Fin land
臓spot light
臓config ured
臓trou bled
臓g aze
臓Cal gary
臓rel iability
臓ins urg
sw er
b uy
臓Sk in
臓p ixels
臓hand gun
臓par as
臓categ or
臓E L
臓Re x
Ind eed
臓kind a
臓conj unction
臓Bry an
臓Man ufact
y ang
Pl us
S QL
ish ment
臓dom inate
臓n ail
臓o ath
臓eru pt
臓F ine
it bart
臓Ch ip
臓Ab d
臓N am
臓buy er
臓diss ent
Le aks
Cont in
臓r ider
臓Some one
臓ill usion
c in
臓Boe ing
臓in adequ
ov ation
i ants
臓reb uild
4 50
臓Dest iny
S W
臓T ill
H it
ia z
臓Bang l
acher s
臓Re form
臓se gments
臓system atic
d c
臓Conserv atives
臓port al
h or
臓Dragon bound
臓drag ged
om o
臓the e
ad vert
臓Rep orts
臓E t
臓barrel s
Aug ust
臓compar isons
臓he x
臓an throp
" [
bor ough
ab i
臓pict ured
play ing
臓Add ress
臓Mir ror
Sm ith
臓t ires
臓N PR
AA AA
臓class ification
臓Th an
臓H arm
臓R A
臓reject ion
min ation
臓r anged
臓F alls
D I
H ost
茫膜 麓
臓Ex ample
list ed
th irds
臓saf egu
br and
臓prob able
Can ada
IT ION
臓Q aeda
臓ch ick
臓import s
h it
l oc
W W
臓ble w
臓any time
臓wh oles
ik ed
臓cal culation
cre ate
臓O ri
臓upgr aded
臓app ar
ut ory
臓M ol
B rit
臓J ong
IN AL
臓Start ing
臓d ice
urt le
臓re lying
cl osure
臓prof itable
臓sl aughter
臓Man ual
c aster
臓" $
臓fe ather
臓Sim ply
ie ves
臓deter ior
臓PC I
臓st amp
臓fl aws
臓sh ade
ham mer
臓pass port
臓cont ing
am el
臓obser vers
臓neg lect
臓R B
臓Brother hood
臓skept ical
f amily
us k
臓emotion ally
芒 幕
臓Bet a
ason able
id ity
臓M ul
臓kick ing
臓C arm
oll ah
VERT IS
臓At hen
臓lad der
臓Bul let
氓 拢
00 01
臓Wild life
臓M ask
臓N an
R ev
臓un acceptable
leg al
臓crowd ed
ag i
臓C ox
j e
臓mor ality
臓fu els
臓c ables
臓man kind
臓Carib bean
臓anch or
臓by te
臓O ften
臓O z
臓craft ed
臓histor ian
臓W u
臓tow ers
臓Citiz ens
臓hel m
臓cred entials
臓sing ular
臓Jes se
臓tack les
臓cont empt
臓a fore
臓Sh adows
臓n il
臓ur gent
app le
bl ood
臓v on
臓off line
臓breat he
臓j umps
臓irre levant
ox ic
om al
import ant
J im
臓gl oves
arm ing
dep th
臓tal ents
ook ie
臓S B
臓pal m
uff s
est a
IG H
臓can on
臓Ver izon
臓P le
臓cou pled
vel t
臓fundra ising
臓Get ting
臓D LC
臓mathemat ical
臓H S
臓Card inals
te lling
臓spons ors
臓 脧
臓Bull s
op tion
臓prop ose
臓mem orable
臓embr aced
臓decl ining
He alth
ed a
臓} ;
臓sp am
m ile
臓pit cher
臓E ight
臓car ing
ut ic
ro le
臓air line
ernand ez
臓Ath let
臓cert ification
ux e
rig er
臓em pir
臓sens ation
臓dis m
臓b olt
臓ev olve
H ouse
臓consult ation
臓D uty
臓tou ches
臓N athan
臓f aint
h ad
" (
臓Cons umer
臓Ext reme
臓12 7
臓Her m
臓Sac rament
iz oph
臓anx ious
ul ously
臓soc ially
臓U TC
臓sol ving
臓Let ter
Hist ory
ed uc
Pr ice
) );
臓rel oad
am ic
臓p ork
臓disc ourse
臓t ournaments
ai ro
臓K ur
臓Cost a
臓viol ating
臓interf ere
臓recre ational
uff le
臓spe eches
臓need ing
臓remem bers
臓cred ited
n ia
f ocused
amer a
臓b ru
um bs
臓Cub an
臓preced ing
臓nons ense
ac ial
臓smart phones
臓St ories
S ports
臓Emer gency
oun cing
ef ined
臓b er
臓consult ing
臓m asters
he astern
." [
臓Run ning
臓sus cept
臓F eng
Americ a
pr ises
st itial
臓Week ly
臓Great er
mod ules
if ter
G raphics
ul er
臓who lly
臓supp ress
臓conce aled
臓happ ily
臓accept s
臓En joy
臓r ivers
臓Ex cept
2 25
臓N HS
臓Mc Connell
臓p ussy
fer red
ut able
臓att ain
臓> =
臓depos its
roph ic
臓not orious
臓Sh aw
il itation
臓epid emic
all ic
臓small est
ov ich
臓access ories
per ties
臓sur plus
臓Me ch
臓amb ig
臓Imm igration
臓ch im
ev al
臓pract icing
臓Myster y
臓dom ains
臓Sil icon
app s
臓kilomet ers
e a
臓Sm ash
臓warrant y
臓n ost
s il
re v
J on
臓Dub lin
臓tast es
臓b out
g reat
er ror
臓sw itches
臓B apt
D O
ok i
臓sour ced
pro du
臓attach ment
臓Iss ue
臓Quest ion
Jo in
臓f itted
臓unlaw ful
^ ^
ere k
臓authent ication
臓st ole
臓account ability
l abel
S earch
臓al beit
atic an
fund ed
臓Add ing
臓I Q
臓sub mar
l it
a que
臓Lear ning
臓int eger
M aster
臓Ch rom
臓prem ier
O p
臓Li u
臓bl essed
臓Gl obe
臓Resp onse
臓legit im
臓Mer kel
臓dispos al
脗 麓
臓gau ge
pe at
臓indu ced
臓question able
arth y
臓V it
臓F eed
U ntil
U t
worth y
R Y
臓H erald
臓Ham mer
臓med al
臓R ivers
臓H ack
臓clar ify
臓track ed
臓autonom ous
臓ten ant
臓Q atar
er ie
臓gr im
臓Mon itor
臓resist ant
臓Spe c
臓Well s
N AS
14 8
臓min ers
iot ics
臓miss es
11 6
g ian
g it
臓E yes
p res
臓grad uated
臓ang el
臓syn chron
臓efficient ly
臓trans mitted
H arry
臓glob ally
EN CE
臓Mont ana
r aged
臓Pre vention
臓p iss
臓L l
臓she lf
臓B JP
臓Test ament
臓L ate
ik er
臓H app
臓Jul ian
h all
臓sp ont
臓shut down
臓incons istent
臓subscrib ers
臓ske leton
臓Ne braska
臓ins pire
臓V oid
F eed
臓ang les
臓Spr ings
臓bench mark
臓vacc ines
izoph ren
se xual
uff ed
臓sh ine
臓K ath
臓gest ure
ine a
臓r ip
臓opp ression
臓cons cience
b t
臓L um
臓inc idence
臓F a
w r
臓min eral
臓Sp urs
alk y
臓th under
臓op io
Be ing
臓Pal m
臓was ted
臓l b
i aries
臓Initi ative
臓cur ric
臓mark er
臓Mc L
臓ext ensions
臓P v
臓Ar ms
臓offer ings
臓def enses
臓vend or
臓contrad ict
臓Col in
臓redd it
臓per ipher
12 2
臓s ins
E dit
IC T
So ft
臓Sh ah
臓administr ator
臓T rip
臓porn ography
臓tu ition
in ence
臓Pro gress
臓cat alog
臓su ite
臓h ike
臓reprodu ctive
eng ine
臓d rought
臓No ah
臓2 30
臓d ude
臓relax ed
臓part ition
臓particip ant
臓tel esc
臓fe as
臓F F
own er
臓swe eping
臓l enses
臓match up
臓Re pl
ourn als
臓cred ible
臓grand mother
臓ther mal
臓subscrib ing
臓ident ities
col m
U CT
臓reluct ant
us ers
臓C ort
臓assist ed
OS S
ATION S
IS H
臓pharm aceutical
ic able
ad ian
臓Son ic
臓F ury
臓M ong
A H
臓Psych ology
臓ph osph
臓treat s
艃 亩
臓stead ily
臓Hell o
臓rel ates
臓cl ue
Ex pl
a uth
臓rev ision
臓e ld
os ion
臓br on
14 4
ri kes
臓min es
臓blank et
臓F ail
el ed
臓Im agine
臓Pl anned
a ic
Re quest
M ad
臓Hor se
臓Eag le
臓cap ac
15 7
臓l ing
臓N ice
臓P arenthood
min ster
og s
ens itive
Not hing
臓car n
F in
臓P E
臓r ifles
臓L P
S and
臓gui Active
臓tour ist
C NN
臓unve iled
臓predec essor
} {
u ber
臓off shore
臓opt ical
臓R ot
臓Pear l
et on
臓st ared
臓fart her
at ility
cont in
臓G y
臓F oster
臓C oc
ri ents
臓design ing
臓Econom y
ON G
W omen
臓N ancy
er ver
臓mas cul
臓casual ties
臓2 25
臓S ullivan
臓Ch oice
臓a ster
w s
臓hot els
臓consider ations
臓cou ch
臓St rip
臓G n
臓manip ulate
l ied
臓synt hetic
臓assault ed
臓off enses
臓Dra ke
臓im pe
Oct ober
臓Her itage
h l
臓Bl air
Un like
臓g rief
臓4 50
臓opt ed
臓resign ation
il o
臓ver se
臓T omb
臓u pt
臓a ired
臓H ook
臓ML B
臓assum es
out ed
臓V ers
臓infer ior
臓bund le
臓D NS
ograp her
臓mult ip
臓Soul s
臓illust rated
臓tact ic
臓dress ing
臓du o
Con f
臓rel ent
臓c ant
臓scar ce
臓cand y
臓C F
臓affili ated
臓spr int
yl an
臓Garc ia
臓j unk
Pr int
ex ec
C rit
臓port rait
ir ies
臓OF F
臓disp utes
W R
L ove
茫模 摩
臓Re yn
臓h ipp
op ath
臓flo ors
臓Fe el
臓wor ries
臓sett lements
臓P os
臓mos que
臓fin als
臓cr ushed
臓Pro bably
臓B ot
臓M ans
臓Per iod
臓sovere ignty
臓sell er
臓ap ost
臓am ateur
臓d orm
臓consum ing
臓arm our
臓Ro ose
臓int ensive
臓elim inating
臓Sun ni
臓Ale ppo
j in
臓adv ise
p al
臓H alo
臓des cent
臓simpl er
臓bo oth
ST R
L ater
臓C ave
== =
臓m ol
臓f ist
臓shot gun
su pp
臓rob bery
E ffect
臓obsc ure
臓Prof essional
臓emb assy
臓milit ant
臓inc arcer
臓gener ates
臓laun ches
臓administr ators
臓sh aft
臓circ ular
臓fresh man
臓W es
臓Jo el
臓D rew
臓Dun can
臓App arently
s ight
臓Intern al
臓Ind ividual
臓F E
臓b ore
臓M t
臓broad ly
臓O ptions
ount ain
ip es
臓V ideos
20 4
臓h ills
臓sim ulation
臓disappoint ment
it an
臓Labor atory
臓up ward
臓bound ary
臓dark er
h art
臓domin ance
C ong
臓Or acle
臓L ords
臓scholars hip
臓Vin cent
ed e
臓R ah
臓encour ages
ro v
臓qu o
臓prem ise
臓Cris is
臓Hol ocaust
臓rhyth m
臓met ric
cl ub
臓transport ed
臓n od
臓P ist
臓ancest ors
臓Fred er
th umbnails
臓C E
ON D
Ph il
ven ge
臓Product s
cast le
臓qual ifying
臓K aren
VERTIS EMENT
臓might y
臓explan ations
臓fix ing
D i
臓decl aring
臓anonym ity
臓ju ven
臓N ord
臓Do om
臓Act ually
O k
ph is
臓Des ert
臓11 6
I K
臓F M
臓inc omes
V EL
ok ers
臓pe cul
臓light weight
g ue
臓acc ent
臓incre ment
臓Ch an
臓compl aining
臓B aghd
臓midfield er
臓over haul
Pro cess
臓H ollow
臓Tit ans
Sm all
man uel
臓Un ity
臓Ev ents
S ty
臓dispro portion
n esty
en es
臓C od
臓demonstr ations
臓Crim son
臓O H
臓en rolled
臓c el
臓Bre tt
臓a ide
臓he els
臓broad band
臓mark ing
臓w izard
臓N J
臓Chief s
臓ingred ient
臓d ug
臓Sh ut
urch ase
end or
臓far mer
臓Gold man
12 9
15 5
Or der
臓l ion
i ably
臓st ain
ar ray
ilit ary
臓FA Q
臓expl oded
臓McC arthy
臓T weet
臓G reens
ek ing
l n
ens en
臓motor cycle
臓partic le
臓ch olesterol
B ron
臓st air
臓ox id
臓des irable
ib les
臓the or
for cing
臓promot ional
ov o
b oot
臓Bon us
raw ling
臓short age
臓P sy
臓recru ited
臓inf ants
臓test osterone
臓ded uct
臓distinct ive
臓firm ware
bu ilt
14 5
臓expl ored
臓fact ions
臓v ide
臓tatt oo
臓finan cially
臓fat igue
臓proceed ing
const itutional
臓mis er
臓ch airs
gg ing
ipp le
臓d ent
臓dis reg
莽 亩
st ant
ll o
b ps
aken ing
臓ab normal
臓E RA
氓拢 芦
臓H BO
臓M AR
臓con cess
臓serv ant
臓as pir
l av
臓Pan el
am o
臓prec ip
臓record ings
臓proceed ed
臓col ony
臓T ang
ab lo
臓stri pped
Le ft
to o
臓pot atoes
臓fin est
% ).
臓c rap
臓Z ach
ab ases
臓G oth
臓billion aire
w olf
臓san ction
S K
臓log ged
P o
ey ed
un al
臓cr icket
臓arm ies
臓unc overed
Cl oud
脙鲁 n
臓reb ounds
臓m es
O per
P ac
臓nation ally
臓insert ed
p ict
臓govern ance
脨 赂
臓privile ges
G ET
臓favor ites
im ity
臓lo ver
the m
em pl
臓gorge ous
An n
臓sl ipped
臓ve to
B ob
臓sl im
u cc
臓F ame
udden ly
臓den ies
臓M aur
臓dist ances
臓w anna
t ar
臓S ER
臓芒 莫
臓le mon
at hetic
臓lit eral
臓distingu ished
臓answ ering
G I
臓relig ions
臓Phil os
臓L ay
臓comp os
ire ments
臓K os
ine z
roll ing
臓young est
and ise
臓B orn
臓alt ar
am ina
臓B oot
v oc
臓dig ging
臓press ures
臓l en
26 4
臓assass ination
臓Bir mingham
臓My th
臓sovere ign
臓Art ist
臓Phot ograph
臓dep icted
臓disp ens
orth y
臓amb ul
int eg
臓C ele
臓Tib et
臓hier archy
臓c u
臓pre season
臓Pet erson
臓col ours
臓worry ing
臓back ers
臓Pal mer
臓脦 录
臓contribut or
臓hear ings
臓ur ine
臓 脵
ourge ois
Sim ilar
臓Z immer
s omething
臓US C
臓strength s
臓F I
臓log ging
As ked
臓Th ai
in qu
臓W alt
臓crew s
it ism
3 01
臓shar ply
um ed
臓red irect
r ators
In f
臓We apons
臓te asp
19 99
L ive
臓Es pecially
臓S ter
臓Veter ans
臓int ro
other apy
臓mal ware
臓bre eding
臓mole cular
臓R oute
臓Com ment
oc hem
臓a in
Se ason
臓lineback er
脛 芦
臓Econom ics
es ar
臓L ives
臓Em ma
臓k in
臓Ter rit
臓pl anted
ot on
臓But ter
臓Sp ons
P ER
臓dun geon
臓symb olic
臓fil med
臓di ets
臓conclud es
臓certain ty
臓Form at
臓str angers
form at
臓Ph ase
臓cop ied
臓met res
ld a
臓Us ers
臓deliber ate
臓was hed
臓L ance
im ation
臓impro per
臓Gen esis
ick r
臓K ush
臓real ise
臓embarrass ing
alk ing
b ucks
臓ver ified
臓out line
year s
臓In come
20 2
臓z ombies
F inal
臓Mill enn
臓mod ifications
臓V ision
臓M oses
ver b
iter ranean
臓J et
臓nav al
臓A gg
臓ur l
臓vict ories
臓non etheless
臓inj ust
臓F act
莽 募
臓ins ufficient
re view
face book
臓negoti ating
臓guarant ees
im en
uten berg
臓g ambling
臓con gr
Load ing
臓never theless
臓pres idents
臓Indust rial
臓11 8
臓p oured
臓T ory
臓17 5
臓: =
Sc ott
ange red
T ok
臓organ izers
M at
臓G rowth
臓ad ul
臓ens ures
臓11 7
茅戮寞 氓
臓mass acre
臓gr ades
be fore
AD VERTISEMENT
臓Sl ow
臓M MA
芒蘑亩 "
臓V atican
Q aeda
臓o we
66 66
臓S orry
臓Gr ass
臓background s
臓exha usted
臓cl an
臓comprom ised
臓E lf
臓Isa ac
ens on
In vest
IF A
臓interrupt ed
茫磨墨 茫磨漏
臓tw isted
臓Drag ons
M ode
臓K remlin
臓fert il
he res
ph an
臓N ode
f ed
臓Or c
臓unw illing
C ent
臓prior it
臓grad uates
臓subject ive
臓iss uing
臓L t
臓view er
臓w oke
Th us
bro ok
臓dep ressed
臓br acket
臓G or
臓Fight ing
臓stri ker
Rep ort
臓Portug al
臓ne o
w ed
19 9
臓flee ing
sh adow
ident ified
US E
Ste am
臓stret ched
臓revel ations
art ed
臓D w
臓align ment
est on
臓J ared
S ep
臓blog s
up date
g om
r isk
臓cl ash
臓H our
臓run time
臓unw anted
臓sc am
臓r ack
臓en light
on est
臓F err
臓conv ictions
臓p iano
臓circ ulation
臓W elcome
臓back lash
臓W ade
臓rece ivers
ot ive
J eff
臓network ing
臓Pre p
臓Expl orer
臓lect ure
臓upload ed
臓Me at
B LE
臓Naz is
臓Sy nd
st ud
ro ots
ri ans
臓portray ed
臓 ??
臓Budd ha
s un
Rober t
臓Com plex
臓over see
臓ste alth
T itle
臓J obs
臓K um
臓appreci ation
臓M OD
臓bas ics
臓cl ips
臓nurs ing
臓propos ition
臓real ised
臓NY C
臓all ocated
ri um
ar an
臓Pro duction
臓V ote
臓sm ugg
臓hun ter
az er
臓Ch anges
臓fl uct
y on
Ar ray
臓k its
W ater
臓uncom mon
臓rest ing
ell s
w ould
臓purs ued
臓assert ion
omet own
臓Mos ul
臓Pl atform
io let
臓share holders
臓tra ils
P ay
臓En forcement
ty pes
臓An onymous
臓satisf ying
il ogy
臓( '
w ave
c ity
Ste ve
臓confront ation
臓E ld
C apt
ah an
ht m
臓C trl
ON S
2 30
if a
hold ing
臓delic ate
臓j aw
臓Go ing
or um
S al
臓d ull
臓B eth
臓pr isons
臓e go
臓El sa
avor ite
臓G ang
臓N uclear
臓sp ider
ats u
臓sam pling
臓absor bed
臓Ph arm
iet h
臓buck et
臓Rec omm
O F
臓F actory
AN CE
臓b acter
H as
臓Obs erv
12 1
臓prem iere
De velop
臓cur rencies
C ast
臓accompany ing
臓Nash ville
臓fat ty
臓Bre nd
臓loc ks
臓cent ered
臓U T
augh s
or ie
臓Aff ordable
v ance
D L
em et
臓thr one
臓Blu etooth
臓n aming
if ts
AD E
臓correct ed
臓prompt ly
臓ST R
臓gen ome
臓cop e
臓val ley
臓round ed
臓K end
al ion
p ers
臓tour ism
臓st ark
v l
臓blow ing
臓Sche dule
st d
臓unh appy
臓lit igation
ced es
臓and roid
臓integ ral
ere rs
ud ed
t ax
臓re iter
臓Mot ors
oci ated
臓wond ers
臓Ap ost
uck ing
臓Roose velt
f ram
臓yield s
臓constit utes
aw k
Int erest
臓inter im
臓break through
臓C her
臓pro sec
臓D j
臓M T
Res p
臓P T
臓s perm
ed it
B T
Lin ux
count ry
le ague
臓d ick
臓o ct
臓insert ing
臓sc ra
臓Brew ing
臓19 66
臓run ners
臓pl un
id y
臓D ian
臓dys function
臓ex clusion
臓dis gr
臓incorpor ate
臓recon c
臓nom inated
臓Ar cher
d raw
achel or
臓writ ings
臓shall ow
臓h ast
臓B MW
臓R S
臓th igh
臓19 63
臓l amb
臓fav ored
ag le
臓cool er
臓H ours
臓G U
臓Orig in
臓glim pse
---------------- ----
L im
臓che ek
臓j ealous
- '
臓har ness
臓Po ison
臓dis abilities
ne apolis
臓out look
臓not ify
臓Indian apolis
臓ab rupt
ns ic
臓enc rypted
臓for fe
reat h
臓r abb
臓found ations
臓compl iment
臓Inter view
臓S we
臓ad olesc
臓mon itors
臓Sacrament o
臓time ly
臓contem pl
臓position ed
臓post ers
ph ies
iov ascular
v oid
臓Fif th
臓investig ative
OU N
臓integ rate
臓IN C
ish a
ibl ings
臓Re quest
臓Rodrig uez
臓sl ides
臓D X
臓femin ism
臓dat as
臓b end
ir us
臓Nig eria
F ox
Ch ange
臓air plane
臓Lad en
臓public ity
ixt y
臓commit ments
臓aggreg ate
臓display ing
臓Ar row
臓12 2
臓respect s
and roid
s ix
臓Sh a
臓rest oration
) \
W S
oy s
臓illust rate
with out
12 6
臓芒亩 膜
臓pick up
n els
臓 ....
f ood
臓F en
) ?
臓phenomen a
臓compan ions
臓W rite
臓sp ill
臓br idges
臓Up dated
臓F o
臓insect s
ASH INGTON
臓sc are
il tr
臓Zh ang
臓sever ity
臓ind ul
14 9
臓Co ffee
臓norm s
臓p ulse
臓F T
臓horr ific
臓Dest roy
臓J SON
臓o live
臓discuss es
R est
E lect
臓W inn
臓Surv iv
臓H ait
S ure
op ed
臓ro oted
臓S ke
臓Bron ze
臓l ol
Def ault
臓commod ity
red ited
臓liber tarian
臓forb idden
臓gr an
脿 篓
臓l ag
en z
dri ve
臓mathemat ics
臓w ires
臓crit ically
臓carb ohyd
臓Chance llor
臓Ed die
臓ban ning
臓F ri
臓compl ications
et ric
臓Bangl adesh
臓band width
St op
臓Orig inally
臓half way
yn asty
sh ine
臓t ales
rit ies
av ier
臓spin ning
臓WH O
臓neighbour hood
b ach
臓commer ce
臓S le
B U
臓entreprene ur
臓pecul iar
臓Com ments
f re
3 20
IC S
臓imag ery
臓Can on
臓Elect ronic
sh ort
( (
D ig
臓comm em
u ced
臓incl ined
臓Sum mon
臓cl iff
臓Med iterranean
臓po etry
臓prosper ity
臓Re ce
臓p ills
m ember
臓fin ale
un c
臓G ig
盲 陆
臓l od
臓back ward
- +
臓For ward
臓th ri
s ure
臓so ap
臓F X
R ES
臓Se xual
oul os
臓fool ish
臓right eous
臓co ff
terror ism
ust ain
ot er
臓ab uses
ne xt
臓ab usive
臓there after
臓prohib ition
臓S UP
臓d ip
臓r ipped
臓inher ited
臓b ats
st ru
G T
臓flaw ed
ph abet
臓f og
do ors
臓im aging
臓dig its
臓Hung ary
臓ar rog
臓teach ings
臓protocol s
臓B anks
脿 赂
p ound
臓C urt
." )
. /
臓ex emption
end ix
臓M ull
臓impro ves
臓G amer
d imensional
I con
臓Marg aret
St atus
d ates
臓int ends
臓dep ict
臓park ed
J oe
臓Mar ines
chn ology
! ).
臓jud ged
臓we ights
R ay
臓apart ments
he ster
臓rein force
臓off ender
occ up
臓s ore
e pt
臓PH P
臓B row
臓author ization
臓R isk
臓Del aware
臓Q U
臓not ifications
臓sun light
臓ex clude
d at
臓m esh
臓Sud an
臓belong ed
臓sub way
臓no on
臓Inter ior
ol ics
臓L akers
臓c oding
Dis claimer
Cal if
O ld
臓dis l
???? ?
臓confir ms
臓recruit ment
臓hom icide
Cons ider
臓Jeff rey
ft y
} ;
臓object ion
do ing
臓Le o
W ant
臓gl ow
臓Clar ke
臓Norm an
臓ver ification
臓pack et
臓Form ula
臓pl ag
es ville
臓shout ing
臓o v
臓R EC
臓B ub
臓n inth
臓ener g
臓valid ity
臓up s
j ack
臓neighbor ing
臓N ec
ew orks
臓H ab
are z
臓sp ine
臓event ual
臓Le aders
臓C arn
臓prob ation
臓rom ance
ms g
臓Mechan ical
ER Y
R ock
臓part isan
N ode
ass ets
min ent
臓foreign ers
臓test ify
臓Us ually
l ords
臓G ren
臓Pow ell
BI L
臓s r
臓add ict
臓shell s
臓s igh
臓Y ale
tern ity
臓7 50
E U
臓R ifle
臓pat ron
em a
臓B annon
an ity
臓trop ical
臓V II
c ross
Every thing
臓IS O
臓hum ble
ass ing
臓F IG
臓upd ating
ys on
臓cal cium
臓compet ent
臓ste ering
Pro t
臓S Y
臓Fin als
臓R ug
15 9
13 7
臓G olf
臓12 6
臓accommod ation
臓Hug hes
臓aest hetic
art isan
臓Tw ilight
臓pr ince
臓Agric ulture
臓Dis co
臓preced ent
臓typ ing
author ized
O ption
臓A ub
l ishes
ach t
m ag
P eter
臓U FO
mont on
臓L ith
臓a rom
臓sec uring
臓conf ined
priv ate
臓sw ords
臓mark ers
臓metab olic
se lect
臓Cur se
臓O t
g ressive
臓inc umb
臓S aga
臓pr iced
臓clear ance
Cont ent
臓dr illing
臓not ices
臓b ourgeois
臓v est
臓cook ie
臓Guard ians
ry s
in yl
臓12 4
臓pl ausible
on gh
臓Od in
臓concept ion
臓Y uk
臓Baghd ad
臓Fl ag
Aust ral
臓I BM
臓intern ationally
臓Wiki Leaks
I ED
臓c yn
臓cho oses
臓P ill
臓comb ining
臓rad i
臓Moh ammed
def ense
atch ing
Sub ject
ic iency
Fr ame
臓{ "
臓che ss
臓tim er
19 0
臓t in
臓ord inance
emet ery
臓acc using
臓notice able
臓cent res
臓l id
臓M ills
img ur
臓z oom
erg ic
臓comp ression
pr im
f ind
臓sur g
臓p and
臓K ee
臓Ch ad
cell ence
oy le
臓social ism
臓T ravis
臓M Hz
臓gu ild
ALL Y
臓Sub scribe
臓Rel ated
臓occur rence
itch ing
臓fict ional
臓cr ush
臓E A
c od
m ix
臓Tri ple
臓retrie ve
臓stimul us
臓psych iat
臓Do or
臓homosexual ity
臓element ary
臓cell ular
id ian
臓L aun
臓intrig uing
臓fo am
臓B ass
id i
its u
臓ass ure
臓congr at
臓business man
臓Bo ost
cl ose
臓l ied
臓sc iences
臓O mega
臓G raphics
臓< =
sp oken
臓connect ivity
S aturday
臓Aven gers
臓to ggle
臓ank le
臓national ist
mod el
臓P ool
ophob ia
V ar
臓M ons
ator ies
臓aggress ively
C lear
For ge
act ers
臓hed ge
臓pip es
臓bl unt
臓s q
臓remote ly
W ed
as ers
臓ref riger
臓t iles
臓resc ued
臓compr ised
ins ky
臓man if
avan augh
臓prol ifer
臓al igned
x ml
臓tri v
臓coord ination
臓P ER
臓Qu ote
13 4
b f
臓S aw
臓termin ation
臓19 0
臓add itions
臓tri o
臓project ions
臓positive ly
臓in clusive
臓mem br
19 90
old er
臓pract iced
ink le
Ar ch
臓star ters
ari us
臓inter mediate
臓Ben ef
臓K iller
臓inter ventions
臓K il
臓F lying
In v
臓prem ature
臓psych iatric
臓ind ie
臓coll ar
臓Rain bow
af i
臓dis ruption
臓FO X
cast ing
臓mis dem
c ro
臓w ipe
ard on
臓b ast
臓Tom my
臓Represent ative
臓bell y
臓P O
臓Bre itbart
13 2
臓mess aging
Sh ould
Ref erences
臓G RE
ist ical
L P
臓C av
臓C razy
臓intu itive
ke eping
臓M oss
臓discont in
臓Mod ule
臓un related
臓Pract ice
臓Trans port
臓statist ically
orn s
臓s ized
p u
臓ca f
臓World s
臓Rod gers
臓L un
臓Com ic
l iving
臓c ared
臓clim bed
) {
臓consist ed
臓med ieval
fol k
臓h acked
臓d ire
臓Herm ione
臓t ended
ce ans
D aniel
w ent
臓legisl ators
臓red es
g ames
臓g n
am iliar
臓+ +
gg y
th reat
臓mag net
臓per ceive
臓z ip
臓indict ment
臓crit ique
g ard
臓Saf e
臓C ream
臓ad vent
ob a
臓v owed
ous ands
臓sk i
臓abort ions
u art
臓stun ned
臓adv ancing
臓lack ed
臓\ "
臓sch izophren
臓eleg ant
臓conf erences
臓cance led
臓Hud son
臓Hop efully
臓tr ump
臓frequ encies
臓met eor
臓Jun ior
臓Fle et
臓Mal colm
臓T ools
臓 ........
臓h obby
臓Europe ans
臓15 00
臓Int o
臓s way
臓App ro
臓Com pl
Comm unity
臓t ide
臓Sum mit
盲 禄
臓inter vals
臓E ther
臓habit at
臓Steven s
lish ing
臓Dom ain
臓trig gers
臓ch asing
臓char m
臓Fl ower
it ored
臓bless ing
臓text ures
F ive
臓liqu or
R P
F IN
臓19 62
C AR
Un known
臓res il
臓L ily
臓abund ance
臓predict able
r ar
臓bull shit
le en
che t
M or
M uch
盲 鹿
臓emphas ized
臓cr ust
臓prim itive
臓enjoy able
臓Pict ures
臓team mate
pl er
臓T ol
臓K ane
臓summon ed
th y
ram a
臓H onda
臓real izing
臓quick er
臓concent rate
cle ar
臓2 10
臓Erd ogan
ar is
臓respond s
臓B I
臓elig ibility
臓pus hes
臓Id aho
臓agg rav
臓ru ins
ur ations
臓b ans
臓an at
sh are
臓gr ind
h in
um en
臓ut ilities
臓Yan kees
臓dat abases
臓D D
臓displ aced
臓depend encies
臓stim ulation
h un
h ouses
臓P retty
臓Raven s
臓TOD AY
臓associ ates
臓the rape
cl ed
臓de er
臓rep airs
rent ice
臓recept ors
臓rem ed
臓C e
臓mar riages
臓ball ots
臓Sold ier
臓hilar ious
op l
13 8
臓inherent ly
臓ignor ant
臓b ounce
臓E aster
REL ATED
臓Cur rency
E V
茫磨 艀
臓Le ad
臓dece ased
B rien
臓Mus k
J S
臓mer ge
heart ed
c reat
m itt
m und
臓芒蘑 沫
臓B ag
臓project ion
臓j ava
臓Stand ards
臓Leon ard
臓coc onut
臓Pop ulation
臓tra ject
臓imp ly
臓cur iosity
臓D B
臓F resh
臓P or
臓heav ier
ne ys
gom ery
臓des erved
臓phr ases
臓G C
臓ye ast
d esc
De ath
臓reb oot
臓met adata
IC AL
臓rep ay
臓Ind ependence
臓subur ban
ical s
臓at op
臓all ocation
gener ation
臓G ram
臓moist ure
臓p ine
臓Liber als
臓a ides
臓und erest
臓Ber ry
臓cere mon
3 70
ast rous
臓Pir ates
臓t ense
臓Indust ries
臓App eals
臓N ear
臓猫拢谋 莽
臓lo vers
臓C AP
臓C raw
臓g iants
臓effic acy
E lement
臓Beh avior
臓Toy ota
臓int est
P riv
A I
臓maneu ver
臓perfect ion
臓b ang
p aper
r ill
Ge orge
b order
in ters
臓S eth
臓cl ues
臓Le vi
臓Re venue
14 7
臓v apor
臓fortun ate
臓threat ens
臓ve t
臓depend ency
ers ed
art icle
臓Bl izzard
臓ch lor
臓min us
臓B ills
臓cryptoc urrency
臓metabol ism
ter ing
臓p estic
step s
臓Tre asure
ract ed
臓Const ant
臓tem p
13 9
臓Det ective
ur ally
臓recover ing
臓cort ex
臓14 4
cl osed
臓prejud ice
aun ted
臓storm s
臓N OW
臓mach inery
Add ress
臓compe lled
27 0
臓desp air
b ane
臓veget able
臓bed s
Lear n
臓color ful
臓sp ike
臓marg ins
臓symp athy
臓works hop
臓C BC
S at
臓burn s
臓G ender
臓12 9
臓C able
臓deb ts
臓The resa
臓reflect ing
臓a irst
臓r im
ram id
臓weakness es
W rit
ogg le
t i
臓Ch arge
臓we ighed
臓( .
臓l aughter
臓rou ter
臓Democr acy
D ear
臓has ht
臓d y
臓hint s
run ning
臓fin ishes
ar us
M ass
res ult
asc us
臓v intage
臓con qu
臓wild ly
ac ist
臓l ingu
臓prot agonist
st rom
te enth
臓Sol o
m ac
f illed
臓re nown
it ives
臓mot ive
臓Ant ar
臓M ann
臓Ad just
臓rock ets
臓trou bling
e i
臓organ isms
ass is
Christ ian
臓14 5
臓H ass
臓sw all
臓w ax
臓Surv ival
V S
臓M urd
v d
stand ard
臓drag ons
臓acceler ation
r ational
f inal
臓p aired
臓E thereum
臓interf aces
臓res ent
臓artif acts
脜 芦
are l
臓compet itor
臓Nich olas
臓Sur face
c pp
臓T ot
臓econom ically
臓organ ised
臓en forced
in ho
臓var ieties
臓ab dom
臓Ba iley
id av
臓Sal v
p aid
臓alt itude
ess ert
臓G utenberg
are a
op oulos
臓profess ors
igg s
臓F ate
he y
臓3 000
D ist
臓tw ins
c ill
臓M aps
臓tra ps
臓we ed
臓K iss
臓y oga
臓recip ients
臓West minster
臓pool s
臓Wal mart
18 8
臓School s
att ack
臓AR M
par agraph
W arning
j l
臓self ish
anche z
臓He ights
F re
臓S oph
臓 --------------------------------
t ml
33 3
臓raid s
臓satell ites
KE Y
臓last s
脩 膜
In s
臓D ame
臓unp redict
// /
gh ai
臓art illery
臓cru ise
臓g el
臓Cabin et
臓bl ows
臓E sp
臓prox imity
ot he
臓Sk ills
臓U pper
ob o
臓N DP
臓enjoy s
臓repe ating
臓Const ruction
臓Quest ions
H illary
臓u int
臓process ors
臓Gib son
臓Mult iple
q a
臓B om
臓M iles
vent ional
臓hur ts
s kin
臓A IDS
臓advis ers
臓R oot
臓method ology
臓D ale
臓det on
臓Know ledge
sequ ently
臓12 1
臓connect s
C y
臓D anger
臓contribut ors
臓B ent
臓br ass
臓Gun s
int o
臓Fort une
臓bro ker
bal ance
臓length s
臓v ic
臓aver aging
臓appropri ately
臓Camer a
臓sand wich
臓CD C
臓coord inate
臓nav ig
臓good ness
l aim
臓bra ke
臓extrem ist
臓W ake
臓M end
臓T iny
臓C OL
臓R F
臓D ual
臓W ine
C ase
臓ref ined
臓l amp
L ead
臓b apt
臓Car b
臓S add
臓Min neapolis
PD F
Ear ly
臓H idden
I ts
臓T IME
臓p ap
臓commission ed
臓F ew
臓Col ts
臓B ren
臓bot hered
臓like wise
Ex per
臓Sch w
c ry
n n
臓M itch
im on
M G
b m
UM P
r ays
臓regist ry
臓2 70
ach ine
re lla
ant ing
00 000
臓ru ined
sp ot
臓t a
臓maxim ize
臓incon ven
D ead
H uman
En abled
臓Mar ie
臓ch ill
臓Parad ise
臓star ring
臓Lat ino
臓Prot ocol
臓E VER
臓suppl iers
m essage
臓Bro ck
臓ser um
芒母莫芒母莫 芒母莫芒母莫
臓en comp
臓amb ition
ues e
臓ar rows
And rew
臓anten na
臓19 61
臓B ark
臓b ool
茫膜 陋
臓St orage
臓rail way
臓toug her
臓C ad
臓was hing
P y
' ]
em bed
臓Mem phis
ack le
臓fam ously
臓F ortunately
ov ies
臓mind set
臓sne ak
臓D h
RA W
臓Sim pson
臓liv est
臓land mark
臓c ement
L ow
臓thr illed
臓Cour se
in el
臓ch uck
id ate
gl obal
臓wh it
臓 茂驴陆
ad ays
s ki
臓S V
臓vir uses
30 6
臓Resp ons
臓the aters
臓Br anch
臓Gene va
臓M K
臓unbel iev
臓commun ist
Orig inal
臓Re ceived
臓Trans fer
臓Ar g
In put
臓Str ategy
臓pal ace
the ning
D ri
臓sent encing
umbn ail
臓p ins
re cy
臓s iblings
Get ting
臓B U
臓North west
臓prolong ed
臓Sak ura
C omb
臓B our
臓inadequ ate
臓K ash
臓us ername
臓Impro ve
臓batt ling
臓M AC
臓curric ulum
臓s oda
臓C annon
臓sens ible
sp ons
De cember
臓w icked
臓P engu
臓dict ators
臓He arts
og yn
臓similar ities
臓St ats
臓h ollow
it ations
": [
臓h over
臓List en
s ch
S und
臓c ad
臓Par ks
臓l ur
臓hy pe
臓L em
N AME
is ure
Fr iday
臓shoot s
臓clos es
臓d b
臓R idge
臓Diff erent
臓repl ies
臓Broad way
op ers
臓int oler
臓Ze us
akes pe
臓propri etary
臓request ing
臓contro llers
臓M IN
im edia
be cca
臓exp ans
臓oil s
B ot
臓Ch and
臓pr inter
臓to pped
臓P OL
臓Ear lier
S ocial
av in
臓decre ases
臓Se b
臓specific ations
臓Bl ast
臓K urt
臓fre el
B rown
臓dil ig
ro e
臓Pro blem
臓Qu ad
臓decent ral
臓V ector
an ut
臓plug ins
臓Greg ory
臓fuck ed
el ines
臓Amb assador
t ake
臓cle ans
ong yang
An onymous
st ro
" }
al ine
臓O dd
臓E ug
2 16
臓bo il
臓P owers
臓nurs es
Ob viously
臓Techn ical
臓exceed ed
OR S
臓extrem ists
臓tr aces
ex pl
臓com r
臓S ach
) /
臓m asks
臓sc i
B on
臓reg ression
we gian
臓advis or
it ures
臓V o
ex ample
臓Inst ruct
臓s iege
臓redu ctions
pt r
臓stat utory
臓rem oves
臓p uck
red its
臓be e
臓sal ad
臓promot ions
臓Josh ua
with standing
ET H
臓Ch a
im us
臓expend iture
aun ting
臓delight ed
臓15 5
be h
臓car pet
臓Sp art
臓j ungle
l ists
臓bull ying
臓Nob el
臓Gl en
臓referen ced
臓introdu ces
se in
臓cho pped
gl ass
臓W rest
臓neutral ity
臓芒 幕
臓investig ator
臓shel ves
臓un constitutional
臓reprodu ction
臓mer chant
m ia
臓met rics
臓explos ives
臓Son ia
臓bod ily
臓thick ness
臓predomin antly
臓Ab ility
臓mon itored
IC H
臓] .
臓Mart inez
臓vis ibility
臓qu eries
臓gen ocide
臓War fare
Qu ery
臓stud ios
臓emb ry
臓corrid or
臓clean ed
com plete
臓M H
臓enroll ment
ING S
臓impact ed
臓dis astrous
臓Y un
臓Cl aire
臓Bas ically
y t
uster ity
臓indirect ly
w ik
臓d od
臓Car r
臓am p
臓prohib it
臓In itial
臓R d
ij i
臓educ ate
c orn
i ott
臓Beaut y
臓detect ive
臓Con n
s ince
臓st agger
臓ob ese
臓b ree
olog ic
is se
walk er
臓bl ades
臓law ful
fun c
臓Beh ind
臓appet ite
臓( *
臓t ennis
臓off spring
臓j ets
臓struct ured
臓afore mentioned
N ov
臓sc aling
f ill
臓st ew
臓cur b
臓Step han
ed In
S F
ob ic
茅 艃亩
ou g
臓M M
臓gen etically
ope z
13 6
臓u mb
anc ers
臓coh ort
臓merch andise
臓imp osing
臓Legisl ature
臓Arch ive
iv ia
臓N aval
臓off ences
臓mir acle
臓sn apped
臓f oes
臓extensive ly
臓R af
臓c ater
ed ience
K it
臓B in
臓recomm ends
臓C ities
臓rig id
臓RE AD
臓Nob le
臓T ian
臓certific ates
ant is
o iler
臓Budd hist
d id
臓survey ed
臓down ward
臓print s
臓Mot ion
ron ics
臓S ans
oss ibly
u ctions
臓colon ies
臓Dan ish
un it
臓sp oil
臓advis ory
ber ries
Pl an
臓specific ation
op hers
臓Res ource
臓sh irts
prising ly
commun ications
臓triv ial
臓mention ing
ise xual
臓supp lements
臓super vision
B P
v or
臓w it
臓co oldown
臓plaint iff
臓Review s
臓S ri
臓M int
臓Sug ar
臓after ward
臓Pri est
臓Invest ment
og ene
臓T aking
臓stretch ing
臓inflamm ation
臓Te hran
臓l ining
臓free zing
臓Ent ity
臓ins piring
spe cial
pr ice
臓su e
臓P orter
oun ge
ET A
臓D erek
臓Lu is
u o
ym ph
臓ex terior
ih il
臓Ash ley
in ator
臓nut rients
臓Th rones
臓fin ances
臓In spect
臓spe cially
臓Requ ired
臓P TS
臓Viol ence
oint ed
sh ots
臓ex cerpt
co on
IN S
臓G ri
臓recogn ised
We ek
You ng
臓v om
is le
臓Cur ry
臓Budd h
臓not ebook
臓d urable
/ ?
臓G ad
臓P upp
臓forg ive
p ark
臓personal ities
an alysis
cl amation
臓elev ator
臓ware house
臓R ole
un n
臓illust ration
臓Sc an
臓atmosp heric
Im port
AN C
rict ed
f u
01 0
臓ar che
臓reward ed
akespe are
臓intern ally
臓R BI
alk er
臓eleph ant
ow itz
臓P izza
臓bip artisan
脙漏 s
臓slow ed
臓St ark
臓over ride
OU S
臓3 20
undred s
臓De ck
臓C ensus
be e
14 6
ot or
臓 ip
臓u b
oc ations
臓But ton
r ice
臓c ripp
ff f
臓orig inated
臓overwhel med
app a
臓fore most
芒蘑 某
臓L EG
re lease
eat ured
at ches
臓re ps
臓l ending
臓Re ference
臓Cl ient
16 5
vent h
Com plete
臓Pat rol
臓sw orn
c am
臓shut tle
臓R alph
臓h ometown
- ,
on al
臓B P
氓 谋
臓persu ade
臓Alex and
臓comb ines
臓v ivid
臓L ag
臓enc oding
臓sal vation
w en
臓Rec overy
i ya
Un iversity
臓B iden
臓bud gets
臓Tex ans
f its
臓hon ored
臓p ython
T D
## #
cl one
臓bl ink
臓L iquid
臓unemploy ed
臓cl ashes
臓Coun sel
臓direct ing
臓pun ct
臓Fal cons
臓sh ark
臓Dam ascus
臓je ans
臓emb ark
臓se ize
臓up wards
2 80
臓E z
臓Any thing
臓ex otic
l ower
臓Creat or
臓U m
臓subur bs
ber ger
臓W end
臓m int
臓X X
臓D ro
臓suff ers
臓her b
t ree
臓frag ile
臓flood ed
臓Al cohol
ole an
ny der
臓K O
F ram
臓13 6
臓ow ed
臓Me lee
臓H ash
臓wh isk
臓su do
r r
Qu ick
app ro
臓i i
臓Ex amples
he e
臓promot es
per ature
k ar
臓Hon or
臓s odium
臓L if
ros so
intend ent
臓correspond ent
F ound
sec ret
臓ident ifies
ag ne
臓l ou
臓P P
臓coinc idence
m ove
臓milit ia
臓inf iltr
臓Prim ary
臓pitch ing
臓I b
臓GO OD
茫膜 赂
臓W izards
ir al
臓Ven us
R R
臓芒蘑 姆
臓Case y
臓sad ly
臓adm ire
臓embarrass ed
c b
M el
臓tub es
臓beaut ifully
臓Queens land
Bel ow
re z
qu et
ple asant
臓脗 芦
C amp
臓dec isive
19 98
臓L amb
ut ton
h n
臓J agu
au nder
臓C ord
臓cl erk
臓ca ffe
臓wip ed
臓re im
臓Mount ains
臓imprison ed
臓develop s
臓P ra
臓model ing
Any one
ance l
臓S it
臓shield s
臓l awn
臓card iovascular
臓demonstr ating
臓par se
臓Israel is
臓euro s
14 3
臓gl orious
ins ki
ec d
臓condition ing
臓hel pless
臓micro sc
臓Har bor
臓st akes
臓2 60
臓un equ
臓Fl oyd
臓d amp
臓appar atus
臓Law s
臓coun ters
臓indu ce
at able
臓Ah med
臓sl am
N ovember
臓pers ist
臓im minent
脙隆 n
臓sh red
臓ph ases
臓Ed monton
臓Arm strong
臓Me et
臓K itty
脩 蘑
c irc
臓Ad ult
臓a rose
臓X en
D an
g ow
臓super f
臓Ad mir
臓end ure
臓key word
yr us
臓y arn
臓path way
臓Hop kins
mid t
臓cens orship
d ependent
臓instruct or
S ources
臓to e
臓ball oon
N ob
臓sw ear
臓Cast ro
臓gl oss
臓K avanaugh
臓remark ably
Ph otos
臓N om
臓S outheast
y ers
臓valid ation
臓cann on
臓Vict ory
臓Pier re
臓caut ious
Aud io
臓f etch
臓G ift
臓H yp
臓rem edy
Z E
臓sc ent
臓be ard
臓R ut
- "
臓pat ents
H y
臓un just
臓pot ato
臓forth coming
臓che f
臓R ift
aff e
臓R OM
臓L aunch
臓p ads
臓Ne o
臓on set
臓squee ze
s afe
臓pref ix
臓T M
臓N early
臓Clin ical
臓M ental
ot iation
臓Un ic
ant ry
臓C ir
臓ep it
脙 娄
臓extract ed
verse ly
ri ad
臓str ains
臓to ps
臓po em
臓Rand y
臓Map le
TH ER
up iter
臓SS D
募 茅
臓un con
per ing
臓sle pt
in ers
臓under water
臓Ev idence
g one
20 5
臓histor ians
臓synt hesis
臓f rog
b asketball
臓vibr ant
臓sub ord
臓3 65
臓D ial
臓cooper ate
HA HA
臓greet ed
15 8
臓j azz
臓into x
臓Walk ing
臓super visor
臓F usion
臓Mer cedes
s end
H am
s d
n l
臓tour s
臓F IFA
臓cul p
g d
30 4
臓ple as
臓illust rates
臓Colomb ia
臓highlight ing
臓Sum mary
臓exp osing
臓D ru
臓ir ony
r itional
臓Car roll
臓Ell is
P ict
臓R apt
臓ad apter
臓un m
臓cor pse
臓celeb rities
D en
at um
臓Ap ocalypse
臓W ag
lin ing
臓horm ones
R ub
臓X i
臓V aults
20 8
alky rie
inos aur
臓feed s
v ity
臓defe ating
W ait
臓emphas ize
臓Steel ers
yr inth
le ys
臓Whe never
Current ly
臓Cl ock
臓collect ively
any on
臓J P
臓ment ality
臓download s
臓surround ings
臓Barn es
臓flags hip
臓indic ators
臓gra pp
Jan uary
臓Element al
臓Athen a
ib al
臓s ights
臓cap ita
臓Treat y
臓vo iced
臓G az
let te
臓y a
臓exp ired
Leg end
H ot
n ature
臓unst able
臓2 80
脙 潞
Com ment
AL E
臓quest s
臓hand ler
n is
臓vers atile
臓conce al
enge ance
臓Inter active
臓obs essed
臓Dog s
臓cr acked
S ound
s v
臓D ylan
ro ads
f x
臓Cath olics
臓H ag
臓sl ammed
臓gl owing
s ale
臓tiss ues
臓Ch i
ne e
臓c her
s ic
ur rection
臓b acon
ul atory
) ."
臓ir regular
FOR M
ass ed
臓intention al
臓compens ate
臓Spe aking
臓S ets
15 3
臓convent ions
b ands
em ade
臓e cc
臓Win ston
臓Assass in
臓Belg ian
臓depend ence
臓nic he
臓b ark
臓J azz
臓disadvant age
臓gas oline
臓16 5
莽募 摩
ess a
mod ule
ang ular
O Y
臓Treat ment
it as
ol ation
臓Arn old
臓fe ud
臓N est
臓the atre
ew ater
臓min ors
olic y
臓H aven
div ision
臓tr unk
F ar
臓P ull
臓capt uring
臓18 00
臓Te en
臓ex empl
臓clin ics
臓B urg
臓subst it
臓pay load
臓L av
臓T roy
臓W itness
臓frag ments
臓pass words
臓g ospel
臓G in
臓ten ants
ol ith
S ix
Pre vious
臓Ag es
臓Dar win
臓bl at
臓em pathy
sm ith
b ag
臓E cho
臓C amb
臓M add
臓B oo
臓red e
臓Burn ing
臓smooth ly
臓Ad rian
臓V ampire
臓Mon sters
ste am
Sty le
M a
re a
臓D war
aly st
urs or
臓elim ination
臓crypt o
ch t
臓E ternal
芒蘑娄 ]
臓S orce
I ll
N ER
臓u h
Con clusion
w age
臓resp ir
臓rem inis
het ical
臓g y
臓util ized
ic idal
臓19 00
臓hun ters
臓Sw an
臓Re act
臓vis itor
臓Thanks giving
30 8
Post s
臓h ips
19 97
om ers
臓kn ocking
臓Veh icle
臓t il
臓13 8
臓m i
臓Invest igation
臓Ken ya
臓cas ino
臓mot ives
臓reg ain
re x
臓week ends
臓stab bed
bor o
臓explo ited
臓HA VE
臓Te levision
c ock
臓prepar ations
臓ende av
臓Rem ote
臓M aker
臓Pro du
臓Ev an
臓inform ational
臓Louis ville
15 4
臓Dream s
臓pl ots
臓Run ner
臓hur ting
臓acad emy
臓Mont gomery
n m
臓L anc
臓Al z
2 10
el ong
臓retail er
臓ar ising
臓rebell ion
臓bl onde
play ed
臓instrument al
C ross
臓ret ention
臓therape utic
臓se as
臓infant ry
臓Cl int
臓prompt ing
臓bit ch
臓st ems
臓K ra
臓the sis
臓B og
ru ed
臓k ings
臓cl ay
ific ent
臓Y ES
臓Th ing
臓Cub s
vey ard
els h
in arily
臓E y
臓Roll ing
臓ev olving
Ind ia
臓recogn izes
臓grad uation
is ers
臓fert ility
臓Mil an
Comm and
臓box ing
臓19 43
臓gl uten
臓Em ir
臓id ol
臓con ceived
臓Cre ation
Mer it
udd y
uss ions
臓Lie utenant
iet al
臓unch anged
臓Sc ale
臓Crime a
ball s
ator ial
臓depth s
臓empir ical
臓trans m
臓uns afe
miss ible
com fort
15 6
臓mechan ic
00 2
l ins
臓sm oked
P os
臓slow ing
臓l av
Tex as
臓che ating
臓Met ropolitan
eth yl
臓discover ing
as se
臓pen cil
臓Py ongyang
臓clos et
臓She et
臓Ent ry
ou stic
臓my st
er ate
ari at
臓miner als
臓music ian
臓P ul
臓M az
24 9
臓per missions
臓 iv
en ary
ick ers
臓B ing
he a
en able
臓gri ev
臓assert ed
臓Colon el
臓aff idav
w o
臓se ated
臓R ide
臓paint ings
臓P ix
臓13 7
ish i
umb ai
g otten
臓Ear l
臓in ning
臓c ensus
臓trave lled
臓Cons ult
18 5
b ind
臓simpl icity
臓overlook ed
臓Help ful
臓mon key
臓overwhelming ly
Bl ood
臓Fl int
臓J ama
臓Pres ent
臓R age
臓T A
pt ive
臓turn out
w ald
臓D olphins
臓V PN
臓on ion
臓craft ing
m ma
臓Merc ury
臓arr ange
臓alert s
臓O T
zb ollah
臓g ases
臓Richards on
s al
l ar
臓fro st
臓lower ing
臓acc laim
臓start ups
臓G ain
ess ment
臓guard ian
盲潞 潞
臓P ie
臓L inks
臓mer its
臓aw ake
臓parent al
臓exceed s
臓id le
臓Pil ot
臓e Bay
臓Ac cept
ipe g
C am
臓K ot
臓trad ers
olit ics
unk er
臓P ale
os i
an mar
臓19 47
臓F ell
est ial
it ating
G F
臓S r
if ted
臓connect or
臓B one
ill es
2 60
h ma
臓overl ap
臓Git Hub
臓clean er
臓Bapt ist
臓W AS
臓lung s
脩 模
臓B UT
臓c ite
臓pit ched
reat ment
臓tro phies
臓N u
38 6
臓Pr ide
臓attend ees
[ ]
17 9
臓spat ial
臓pri zes
臓Rel igion
臓show case
臓C ategory
vid ia
T arget
Pro perty
? ,
臓f usion
p ie
臓U CLA
臓sound track
臓prin cess
臓C aval
sh ould
臓lim bs
Back ground
臓lone ly
臓c ores
臓T ail
she et
臓13 2
R a
茫膜 芦
臓B olt
臓book ed
臓admin ister
臓equ als
w y
臓observ ing
臓Bar on
臓Ad obe
臓v irgin
臓Social ist
M ove
gh azi
臓Lind a
2 12
臓bre wing
臓merch ants
bur se
臓div or
臓met als
臓N er
臓sum s
臓En emy
臓en vision
臓grant ing
臓H oney
臓Sk yrim
臓soc io
gr aded
臓select ive
W ASHINGTON
臓19 48
臓Sir ius
臓G ross
act ivity
臓I van
臓fur ious
BS D
臓Pre vious
臓respons ive
臓char itable
臓le aning
臓P ew
臓viol ates
\\\\ \\\\
臓Com ing
w ire
臓po et
臓res olutions
comm and
臓Portug uese
臓nick name
臓de af
Feb ruary
臓recogn ise
臓entire ty
臓season al
pl aced
臓Te legraph
臓micro phone
our ing
臓gr ains
臓govern ed
臓post p
臓W aters
in ement
臓und ocumented
臓Com cast
臓f ox
臓assault s
re on
man y
臓Jen kins
臓Any way
臓assess ments
臓down s
臓M ouse
臓super b
k t
臓D ow
臓tax ation
4 01
臓sm iles
臓undert aken
臓ex h
臓enthusi astic
臓tw ent
臓government al
臓autonom y
臓Techn ologies
臓Ch ain
臓preval ent
f b
臓nic otine
og ram
j ob
臓awa iting
臓Men u
臓dep uties
k ov
ish ops
But ton
臓Shan ghai
臓dies el
臓D uck
R yan
臓PC s
N F
j ury
ent e
臓inacc urate
edd y
Wh atever
臓show c
臓N ad
od us
et r
臓plaint iffs
臓W OR
臓Ass ange
臓priv at
臓premium s
臓t am
UR L
臓el ites
臓R anger
otten ham
臓H off
臓At hens
臓defin ite
臓s ighed
臓even ly
2 11
臓Am ber
ak ia
臓mail ing
臓cr ashing
臓Confeder ate
ru gged
W al
臓Dep ths
臓juven ile
臓react or
Introdu ction
臓Del uxe
19 95
臓S anchez
臓M ead
iv able
: -
臓Plan ning
臓T rap
qu in
臓Prot ect
ve red
In formation
臓kid ney
inn amon
l as
臓polic ing
臓toler ate
臓Q i
臓bi ased
F ort
臓K i
s ave
臓privile ged
臓be asts
臓Gl as
臓C inem
臓come back
Sund ay
臓ext inction
h ops
臓trans mit
臓doub les
臓Fl at
16 7
臓dis puted
臓injust ice
f oo
V ict
role um
臓Jul ie
Con text
臓R arity
iss ue
Comp onent
臓counsel ing
an ne
d ark
臓object ions
u ilt
臓g ast
臓pl ac
臓un used
茫磨 末
臓T rial
臓J as
hed ral
ob b
臓tempor al
臓PR O
臓N W
臓Ann iversary
L arge
臓ther m
臓d avid
臓system ic
臓Sh ir
m ut
臓Ne pt
add ress
臓scan ning
臓understand able
臓can vas
C at
臓Z oo
臓ang els
L O
臓Stat ement
臓S ig
ov able
臓A way
sh aring
ocr ats
st ated
臓weigh ing
N or
w ild
B ey
臓aston ishing
臓Reyn olds
臓op ener
臓train er
臓surg ical
p n
臓adjust ing
whe el
臓f rown
erv ative
臓susp end
With in
te in
臓obst acle
臓liber ties
ym es
臓ur anium
ans om
an ol
ub a
臓L oss
臓a rous
臓Hend erson
W ow
s pl
c ur
臓脗 艃
臓their s
Dam age
臓download ing
臓disc ern
臓St o
臓Fl a
臓h ath
臓A j
臓un pleasant
Europe an
exp ensive
臓screens hot
臓U V
臓all ied
臓Pers ian
臓monop oly
臓at om
臓Reds kins
"> <
臓can cell
臓cinem a
13 1
f air
臓Alf red
臓d uck
arg s
22 3
臓IS I
臓sign aling
in ar
臓laugh s
臓for wards
臓reck less
臓listen ers
at ivity
臓vast ly
n ant
L ess
臓Hun ting
臓Scient ific
IT ED
臓kn ight
臓H TC
us a
t mp
臓r ude
臓Legend ary
臓ar ises
B ad
臓Cl aim
pe g
臓real ities
Th ink
臓脗 掳
臓ro de
臓stri ve
臓an ecd
臓short s
臓hypot hes
臓coord inated
臓Gand hi
臓F PS
R ED
臓suscept ible
臓shr ink
臓Ch art
Hel p
臓 ion
de ep
rib es
臓K ai
臓Custom er
Sum mary
臓c ough
w ife
臓l end
臓position ing
臓lot tery
臓C anyon
臓f ade
臓bron ze
臓Kenn y
臓bo asts
臓Enh anced
rec ord
臓emer gence
臓a kin
臓B ert
it ous
芒母 某
臓st ip
臓exch anged
om ore
als h
臓reserv oir
臓stand point
W M
臓initi ate
臓dec ay
臓brew ery
臓ter ribly
臓mort al
lev ard
臓rev is
N I
el o
臓conf ess
臓MS NBC
臓sub missions
Cont roller
臓20 2
臓R uth
} );
臓Az ure
臓 ."
20 6
臓Market ing
臓l aund
ien cies
臓renown ed
臓T rou
臓N GO
ble ms
臓terr ified
臓war ns
臓per t
臓uns ure
4 80
ale z
ult z
臓Out side
臓st yl
臓Under ground
臓p anc
臓d ictionary
臓f oe
rim inal
臓Nor wegian
臓j ailed
臓m aternal
脙漏 e
臓Lu cy
c op
Ch o
臓uns igned
臓Ze lda
臓Ins ider
臓Contin ued
臓13 3
臓Nar uto
臓Major ity
16 9
臓W o
茫膜 牡
臓past or
臓inform al
脨 陆
an throp
jo in
茫模 墓
it ational
N P
臓Writ ing
f n
臓B ever
19 5
臓y elling
臓dr astically
臓e ject
臓ne ut
臓th rive
臓Fre qu
ou x
臓possess es
臓Sen ators
臓D ES
臓Sh akespeare
臓Fran co
臓L B
uch i
臓inc arn
臓found ers
F unction
臓bright ness
臓B T
臓wh ale
臓The ater
m ass
臓D oll
S omething
臓echo ed
臓He x
c rit
af ia
臓godd ess
臓ele ven
臓Pre view
臓Aur ora
臓4 01
uls ive
臓Log an
in burgh
臓Cent ers
臓ON LY
臓A id
臓parad ox
臓h urd
臓L C
D ue
c ourt
臓off ended
臓eval uating
臓Matthew s
臓to mb
臓pay roll
臓extra ction
臓H ands
if i
臓super natural
臓COM M
] =
dog s
臓5 12
臓Me eting
Rich ard
臓Max imum
臓ide als
Th ings
m and
臓Reg ardless
臓hum ili
b uffer
L ittle
臓D ani
臓N ak
臓liber ation
臓A be
臓O L
臓stuff ed
ac a
ind a
raph ic
臓mos qu
臓campaign ing
臓occup y
S qu
r ina
臓W el
臓V S
臓phys ic
臓p uls
r int
oad ed
ET F
臓Arch ives
臓ven ues
h ner
臓Tur bo
臓l ust
臓appeal ed
que z
il ib
臓Tim othy
臓o mn
d ro
臓obs ession
臓Sav age
19 96
Gl obal
J es
2 14
臓sl iding
臓disapp ro
臓Mag ical
臓volunt arily
g b
ane y
臓prop het
臓Re in
臓Jul ia
臓W orth
aur us
臓b ounds
ie u
)) )
臓cro re
臓Citiz en
S ky
臓column ist
臓seek ers
ond o
IS A
臓L ength
臓nost alg
臓new com
臓det rim
ent ric
3 75
臓G E
臓aut op
臓academ ics
App Data
臓S hen
臓id iot
臓Trans it
臓teasp oon
W il
K O
臓Com edy
> ,
臓pop ulated
W D
臓p igs
臓O culus
臓symp athetic
臓mar athon
19 8
臓seiz ure
s ided
臓d op
irt ual
L and
臓Fl oor
osa urs
... ]
臓l os
臓subsid iary
E Y
臓Part s
臓St ef
臓Jud iciary
臓13 4
臓mir rors
臓k et
t imes
臓neuro log
臓c av
臓Gu est
臓tum or
sc ill
臓Ll oyd
E st
臓cle arer
臓stere otypes
臓d ur
not hing
Red dit
臓negoti ated
---------------- --------
23 5
臓fl own
臓Se oul
臓Res ident
臓S CH
臓disappear ance
臓V ince
g rown
臓grab s
r il
臓Inf inite
臓Tw enty
臓pedest rian
臓jer sey
臓F ur
臓Inf inity
臓Ell iott
臓ment or
臓mor ally
臓ob ey
sec ure
iff e
臓antib iotics
ang led
臓Fre eman
臓Introdu ction
J un
臓m arsh
ic ans
臓EV ENTS
och ond
W all
icult y
臓misdem eanor
臓l y
Th omas
臓Res olution
臓anim ations
臓D ry
臓inter course
臓New castle
臓H og
臓Equ ipment
17 7
臓territ orial
臓arch ives
20 3
Fil ter
臓Mun ich
臓command ed
臓W and
臓pit ches
臓Cro at
臓rat ios
臓M its
臓accum ulated
臓Specific ally
臓gentle man
acer b
臓p enn
臓a ka
臓F uk
臓interven e
臓Ref uge
臓Alz heimer
臓success ion
oh an
d oes
L ord
臓separ at
臓correspond ence
臓sh iny
P rior
臓s ulf
臓miser able
臓ded ication
( ).
臓special ists
臓defect s
臓C ult
臓X ia
臓je opard
臓O re
Ab ility
臓le ar
臓amb itions
臓B MI
臓Arab s
臓19 42
臓pres ervation
ific ate
臓ash amed
l oss
臓Rest aur
臓rese mble
臓en rich
臓K N
臓Cl an
fl oat
臓play able
IT T
臓harm ony
arr ison
臓We instein
w ere
臓poison ing
臓Com put
臓Word Press
m ajor
臓Val ve
F an
臓Th row
臓Rom ans
臓Dep ression
ad os
臓tort ured
臓bal ancing
bott om
臓acqu iring
臓Mon te
ard i
臓a ura
臓# #
臓Stand ing
臓Atl as
C F
臓intr ins
臓Ben ghazi
臓camp ing
臓t apped
bl ade
st rous
臓R abb
臓W ritten
t ip
臓Ne igh
ster dam
臓All ow
臓He aling
臓R hod
n um
臓caffe ine
臓Per cent
臓bo o
臓app les
30 5
臓wel coming
臓appl aud
臓a usterity
脗 卤
臓Re ality
ef e
氓 庐
臓su cks
臓tab s
臓Pay Pal
臓back pack
臓gif ted
abul ary
臓Sc out
ir teen
臓ch in
臓o mitted
臓negative ly
臓access ing
臓E arn
臓ambul ance
臓head phones
臓20 5
臓Ref resh
p resident
臓Kit chen
臓Ent ered
臓S nyder
00 5
om ical
臓borrow ed
臓N em
臓av iation
臓st all
rim ination
臓uniform s
it ime
臓Sim mons
ener gy
ab lished
y y
qual ified
臓rall ies
臓St uart
fl ight
臓gang s
r ag
臓v ault
lu x
臓Com par
臓design ation
20 9
臓J os
d ollar
z ero
臓well s
30 3
臓constitu ents
臓he ck
臓c ows
臓command ers
臓different ial
臓C atherine
29 9
臓val ve
臓br ace
臓perspect ives
c ert
f act
icular ly
臓Mc N
pl anes
臓int ric
臓pe as
ov an
臓toss ed
ret ch
臓L opez
臓unf amiliar
de ath
臓A part
臓Ch ang
臓relie ved
rop he
臓air ports
臓fre ak
ut il
M ill
臓Ch in
臓Ow en
m ale
臓Bro ken
臓Wind s
ro b
r ising
臓fire fighters
臓author itarian
臓14 8
Bit coin
ex ternal
臓brow sers
iche ver
or ian
臓un b
臓po ke
臓Z ot
M id
臓Pop ular
臓co vert
臓cont ributes
臓6 50
臓cont ention
G ate
臓cons oles
臓chrom os
臓I X
臓vis ually
臓E isen
臓jewel ry
臓deleg ation
臓acceler ate
臓R iley
臓sl ope
臓ind oor
it ially
臓huge ly
臓tun nels
臓fin ed
臓direct ive
臓fore head
ustom ed
臓sk ate
Mus ic
g as
臓recogn izing
am bo
臓over weight
臓Gr ade
脵 默
臓sound ing
臓lock ing
臓R EM
St ore
臓exc av
臓Like wise
臓L ights
臓el bow
臓Supp ly
w ic
臓hands ome
19 94
C oll
臓adequ ately
臓Associ ate
臓stri ps
臓crack down
臓mar vel
臓K un
臓pass ages
@@ @@
臓T all
臓thought ful
names e
臓prost itution
bus iness
臓ball istic
person al
c ig
iz ational
R ound
臓脗艂臓脗艂 臓脗艂臓脗艂
臓Cole man
臓adm itting
臓Pl ug
臓bit coins
臓Su z
臓fair ness
臓supp lier
臓catast rophic
臓Hel en
o qu
M arc
臓Art icles
g ie
臓end angered
臓dest iny
臓Vol t
ol ia
ax is
臓che at
臓un ified
IC O
qu ote
30 2
臓S ed
臓supp ression
臓analy zing
臓squ at
臓fig uring
臓coordin ates
臓ch unks
臓19 46
臓sub p
臓w iki
臓For bes
臓J upiter
臓E rik
im er
臓Com mercial
\ )
臓legitim acy
臓d ental
臓Me an
臓defic its
5 50
Orig inally
臓Hor ror
臓contam ination
ll ah
臓conf isc
臓Cl are
T B
臓F ailed
an ed
臓rul er
臓Cont roller
臓femin ists
F ix
g ay
20 7
臓r abbit
Th ird
ownt own
臓gl ue
臓vol atile
臓sh ining
臓f oll
臓imp aired
臓sup ers
忙 莫
臓cl utch
募茅 抹拇
臓pro let
臓( !
臓y elled
臓K iev
臓Er n
臓Sh ock
K B
臓sit uated
qu ery
臓N as
臓an nex
char acter
臓Hol iday
臓autom ation
臓J ill
臓Rem astered
臓l inem
臓wild erness
臓Hor izon
臓Gu inea
A Z
臓main land
臓sec recy
LE ASE
臓p unk
臓Prov ince
( ),
Spe ed
臓hand ing
臓Seb ast
S ir
r ase
臓j ournals
臓con gest
臓T ut
ir rel
臓schizophren ia
臓mis ogyn
health y
I ron
臓react ed
- $
25 2
臓pl ural
臓pl um
臓barg ain
臓ground ed
f inder
臓dis se
臓L az
O OD
臓at roc
F actory
臓min ions
臓o ri
臓B rave
臓P RE
臓My anmar
臓H od
臓exped ition
臓expl ode
臓Co ord
臓ext r
臓B rief
臓AD HD
臓hard core
feed ing
臓d ile
臓F ruit
臓vacc ination
臓M ao
osp here
臓cont ests
- |
臓f ren
isp here
R om
臓Sh arp
臓Tre nd
臓dis connect
芒蘑垄 芒蘑垄
臓per secution
Ear th
臓health ier
38 4
臓c ob
臓Tr inity
OW S
AN N
臓special ty
臓g ru
臓cooper ative
wh y
Start ing
臓Iss ues
st re
ens or
臓18 5
Ad v
! ?
臓Re vel
em ia
臓H ulk
臓celebr ations
臓S ou
ra ud
臓Kle in
臓un real
con text
臓partners hips
臓adop ting
t ical
臓spl ash
臓He zbollah
c ategory
cycl op
xt on
臓D ot
urd y
t z
臓envelop e
臓N L
芒 姆
臓where in
Spe c
18 4
臓te lev
al iation
臓myth s
氓 掳
臓rig orous
臓commun icating
臓obser ver
臓re he
臓W ash
臓apolog ized
臓T in
臓expend itures
work ers
d ocument
臓hes itate
臓Len in
臓unpredict able
臓renew al
cl er
ok ia
臓CON T
臓post season
Tok ens
臓ex acerb
臓bet ting
臓14 7
臓elev ation
W ood
臓Sol omon
19 4
00 4
out put
臓redu nd
臓M umbai
臓p H
臓reprodu ce
臓D uration
MA X
臓b og
C BS
臓Bal ance
臓S gt
臓Rec ent
臓c d
臓po pped
臓incomp et
pro p
ay an
g uy
Pac ific
臓ty r
臓{ {
臓My stic
臓D ana
臓mast urb
臓ge ometry
脙 垄
臓Cor rect
臓traject ory
臓distract ed
臓f oo
臓W elsh
L uc
m ith
臓rug by
臓respir atory
臓tri angle
臓2 15
臓under graduate
臓Super ior
ch anging
_ -
臓right ly
臓refere e
臓luc rative
臓un authorized
臓resemb les
臓GN U
臓Der by
臓path ways
臓L ed
臓end urance
臓st int
臓collect or
F ast
臓d ots
臓national s
臓Sec urities
臓wh ip
Par am
臓learn s
M agic
臓detail ing
m oon
臓broadcast ing
臓b aked
26 5
hol m
臓S ah
臓Hus sein
臓Court esy
17 4
臓14 6
臓ge ographic
pe ace
臓jud ging
臓S tern
B ur
臓story line
G un
臓St ick
24 5
30 7
茫膜麓 茫磨鲁
臓Administ rator
臓bur nt
臓p ave
ch oes
Ex ec
臓camp uses
Res ult
臓mut ations
臓Ch arter
臓capt ures
臓comp ares
臓bad ge
S cient
臓er ad
ier y
o i
ett es
臓E state
臓st rap
臓proud ly
臓f ried
臓withd rawn
臓V oy
ph ony
It ems
臓P ierce
b ard
臓ann otation
ant on
ill on
Im pro
... )
臓happ ier
---- --
ad just
臓staff ers
臓activ ism
臓per f
臓al right
N eed
臓comm ence
臓opio id
臓Am anda
E s
臓P ars
臓K aw
W orks
24 8
臓ind o
t c
end ant
臓M oto
臓legal ization
OT E
臓task ed
臓t sp
臓ACT IONS
16 6
臓refres hing
臓N R
臓Pere z
臓infring ement
S Y
List en
in ning
k u
臓rot ate
pro gram
ar ah
Des ign
臓( 脗拢
臓st oring
臓war rants
臓jud gement
臓B rist
us ually
ph oto
臓R an
臓P ine
臓outrage ous
臓Valent ine
lu ence
臓Every body
Al tern
臓rele vance
臓termin ated
臓d essert
臓fulf illed
臓prosecut ed
臓W ords
臓m igrant
臓cultiv ation
脙磨脙膜脙磨脙膜脙磨脙膜脙磨脙膜脙磨脙膜脙磨脙膜脙磨脙膜脙磨脙膜 脙磨脙膜脙磨脙膜脙磨脙膜脙磨脙膜脙磨脙膜脙磨脙膜脙磨脙膜脙磨脙膜
idel ity
臓V ern
臓Log in
臓metaph or
臓T ip
臓recru its
臓P ig
rib ing
臓enthusi asts
ex per
臓fright ening
臓H air
ans on
str ate
臓h i
He ight
臓own ing
n one
臓dis like
臓kn ives
pher d
臓loud ly
臓AP Is
Dis play
臓L ac
臓US S
ab l
ver ages
J ew
臓17 2
臓Hist orical
at oon
臓Phys ics
in tern
臓warm th
臓to pp
D M
臓gun man
臓em peror
od i
茫磨 拢
in atory
臓R ib
臓13 1
臓Sat urn
臓Sh ining
臓w aking
Qu otes
臓comed ian
en berg
脗 陆
臓belie vers
臓paper work
c ustom
臓le v
臓l ament
臓pour ing
22 2
p olitical
臓Supp lement
m aid
臓cruel ty
臓t read
ys ics
A w
rit es
臓mod ifier
臓P osition
Ad am
l b
ub s
臓imper fect
臓cl usters
臓Engine er
臓C herry
臓inaug uration
臓S au
臓embod iment
臓Un cle
臓over r
臓explos ions
c ule
臓Princ eton
臓Andre a
臓incorrect ly
臓earn est
臓pil gr
臓S print
臓slee ve
臓he ars
臓Am azing
臓brow sing
ag in
臓hom eland
臓ha w
臓d iving
ist ered
17 8
臓barg aining
臓Arc ade
臓deleg ate
ters on
................................ ................................
臓Jackson ville
27 5
臓st agn
臓ad am
臓Sher man
C B
臓sub urb
臓Food s
臓conver ting
臓Ar ist
臓ch ambers
l ove
臓am ino
臓G an
臓mad ness
m c
臓US E
def ined
臓ul tr
ind ust
臓w olves
l ance
Add itionally
臓cr acks
as ia
臓Re ason
臓P ump
臓accident al
臓L aser
臓R id
臓initial ized
ell i
臓un named
臓n oun
臓Pass ed
臓host age
臓Eth iop
sh irts
臓un rel
臓Emb assy
臓19 41
臓at oms
臓pur ported
16 4
臓F i
臓gall ons
臓Mon ica
臓p g
en ment
臓sort ed
臓G ospel
臓he ights
臓tr aced
臓under going
She ll
臓s acks
臓proport ions
臓hall uc
F ont
ac et
臓war mer
臓IN TER
臓grab bing
Pl ug
臓real ization
臓Bur ke
臓en chant
AT ER
臓Se ed
臓abund ant
F M
臓c ivic
V s
is i
臓v ow
臓re per
臓Partners hip
臓penet ration
臓ax e
臓sh attered
臓Z ombies
臓v inyl
臓Al ert
e on
臓oblig ed
臓Ill ust
臓Pl aza
臓Front ier
臓david jl
臓Ser ial
臓H av
臓Nut rition
B i
臓芒母 莫
臓J ays
lin ux
臓hur ry
臓v oy
臓hop eless
臓Ste alth
臓 茫模
ess ors
tt le
b org
臓Saf ari
f ell
臓w ary
d ue
臓Ab ove
H a
E LL
臓not or
臓W on
T oo
臓occup ations
臓poss essions
臓inv iting
臓pred ators
臓acceler ated
臓15 7
uter te
臓C ube
e ast
acc ount
G ive
臓trans plant
red ients
id able
臓screens hots
臓G und
臓F S
臓travel ers
臓sens ory
臓F iat
臓Rock ets
陌 沫
_ {
F riend
臓char ming
AL S
臓enjoy ment
m ph
臓5 000
臓RE G
脵 抹
b ia
臓comp ilation
ro st
臓V P
臓Sch ne
201 9
臓cop ying
M ORE
臓Fl ore
f alls
2 15
t otal
臓dis ciples
d ouble
臓exceed ing
臓sm ashed
臓concept ual
臓Rom ania
臓B rent
臓I CE
臓T ou
臓g rap
臓n ails
18 9
茫磨 暮
臓proc ure
e ur
臓confir ming
臓C ec
aw i
臓Ed en
臓n g
臓engine ered
at ics
臓hook ed
臓disgust ing
臓Mur der
茫膜 驴
L ibrary
臓16 8
Al most
hem atic
Men u
臓Not re
臓J ur
臓kidn apped
臓hack er
臓J ade
臓creep y
臓draw ings
臓Spons or
臓cycl ists
臓Gob lin
臓optim ized
臓st aged
臓Mc D
bet ween
A ge
en o
S ex
臓W ide
n ings
av is
臓incap able
臓K ob
臓reward ing
臓L one
oles cent
臓contract ed
臓stick y
J ose
B all
f est
臓In put
臓Rec ently
臓to mat
squ are
App lication
臓nit rogen
臓dupl icate
臓Rec on
臓D ear
L ondon
臓int ra
臓d ock
臓out reach
臓M illion
臓mamm als
am pton
V AL
臓sn aps
臓d os
臓Wh ole
臓Read y
T ry
臓Winn ipeg
ear ance
臓inc urred
ren ched
臓NS W
il ot
rain e
臓c ube
g ot
臓run way
etermin ed
臓Haw ks
臓surviv or
臓W ish
臓D in
臓DE F
臓V ault
18 7
臓mush rooms
臓cris p
be y
臓Disco very
臓development al
臓parad igm
臓cha otic
臓T su
臓3 33
b ons
臓bacter ial
臓comm its
臓cos mic
臓me ga
oc ative
臓P aint
ophob ic
臓v ain
臓car ved
臓Th ief
臓G ul
ows hip
臓c ites
臓Ed inburgh
臓dimin ished
臓acknowled ges
臓K ills
臓mic row
臓Her a
臓sen iors
臓where by
H op
at ron
臓un available
臓N ate
臓4 80
臓sl ated
臓Re becca
臓B attery
臓gram mar
臓head set
臓curs or
臓ex cluding
any e
aunder ing
eb in
臓feas ible
臓Pub lishing
臓Lab s
臓Cl iff
臓Ferr ari
臓p ac
vis ible
mark ed
pe ll
臓pol ite
臓stagger ing
臓Gal actic
臓super st
臓par an
臓Offic ers
茫蘑 模
臓specific s
ul us
23 9
臓P aste
AM P
臓Pan ama
臓De lete
angu ard
rest rial
臓hero ic
臓D y
脴搂 脵摩
臓incumb ent
臓cr unch
t ro
臓sc oop
臓blog ger
臓sell ers
ure n
臓medic ines
臓C aps
臓Anim ation
ox y
臓out ward
臓inqu iries
22 9
臓psych ologist
臓S ask
ev il
臓contam inated
茫膜 篓
he rence
臓brand ed
臓Abd ul
z h
臓paragraph s
臓min s
臓cor related
er b
臓imp art
臓mil estone
臓Sol utions
ot le
臓under cover
臓mar ched
臓Charg ers
f ax
臓Sec rets
臓r uth
we ather
臓femin ine
臓sh am
臓prest igious
igg ins
臓s ung
hist ory
ett le
gg ie
臓out dated
ol and
臓per ceptions
臓S ession
臓Dod gers
u j
臓E ND
D oc
臓defic iency
Gr and
臓J oker
臓retro spect
臓diagn ostic
臓harm less
臓ro gue
臓A val
E qu
臓trans c
臓Roberts on
臓Dep ending
臓Burn s
iv o
臓host ility
F eatures
牡 暮
臓dis comfort
臓L CD
spec ified
臓Ex pect
3 40
臓imper ative
臓Reg ular
Ch inese
臓state wide
臓sy mm
臓lo ops
臓aut umn
N ick
臓sh aping
臓qu ot
臓c herry
臓Cross ref
猫娄 募茅抹拇
Stand ard
he ed
臓D ell
臓Viet namese
臓o st
臓V alkyrie
O A
Ass ad
臓reb ound
臓Tra ffic
pl aces
忙 暮
臓B uc
17 2
臓shel ters
臓ins isting
臓Certain ly
臓Kenn eth
臓T CP
臓pen al
臓Re play
he ard
臓dial ect
iz a
臓F Y
it cher
臓D L
臓spir al
臓quarterback s
臓h ull
臓go ogle
臓to dd
臓Ster ling
臓Pl ate
臓sp ying
mb ol
臓Real m
臓Pro ced
臓Cr ash
臓termin ate
臓protest ing
C enter
gu ided
臓un cover
臓boy cott
臓real izes
s ound
臓pret ending
臓V as
19 80
臓fram ed
臓13 9
臓desc ended
臓rehab ilitation
臓borrow ing
臓B uch
臓bl ur
R on
臓Fro zen
en za
Ch ief
臓P oor
臓transl ates
M IN
臓2 12
J ECT
臓erupt ed
臓success es
S EC
臓pl ague
臓g ems
d oms
臓stret ches
臓Sp y
臓story telling
C redit
臓P ush
臓tra ction
臓in effective
臓L una
臓t apes
臓analy tics
erc ise
臓program mes
臓Car bon
臓beh old
he avy
臓Conserv ation
臓F IR
臓s ack
ter min
ric ks
臓hous ed
臓unus ually
I ce
臓execut ing
臓Mor oc
ed ay
臓ed itions
臓sm arter
臓B A
臓out law
臓van ished
ib a
AL SE
臓Sil va
23 8
C ould
臓philos opher
臓evac uated
Sec ret
14 2
臓vis as
茫膜 卢
臓M alt
臓Clear ly
臓N iger
臓C airo
臓F ist
3 80
臓X ML
aut o
it ant
臓rein forced
Rec ord
臓Surviv or
G Hz
臓screw s
parent s
臓o ceans
ma res
臓bra kes
vas ive
臓hell o
臓S IM
rim p
臓o re
臓Arm our
24 7
臓terr ific
臓t ones
14 1
臓Min utes
Ep isode
臓cur ves
臓inflamm atory
臓bat ting
臓Beaut iful
L ay
臓unp op
v able
臓r iots
臓Tact ics
b augh
臓C ock
臓org asm
臓S as
臓construct or
et z
G ov
臓ant agon
臓the at
臓de eds
ha o
c uts
臓Mc Cl
臓u m
臓Scient ists
臓grass roots
ys sey
"] =>
臓surf aced
臓sh ades
臓neighb ours
臓ad vertis
oy a
臓mer ged
Up on
臓g ad
臓anticip ate
Any way
臓sl ogan
臓dis respect
I ran
臓T B
act ed
臓subp oen
medi ately
OO OO
臓wa iver
臓vulner abilities
ott esville
臓Huff ington
J osh
臓D H
M onday
臓Ell en
K now
x on
it ems
22 8
臓f ills
臓N ike
臓cum ulative
and als
I r
臓 矛
臓fr iction
ig ator
臓sc ans
臓Vi enna
ld om
臓perform ers
P rim
臓b idding
M ur
臓lean ed
臓Pri x
al ks
臓[ 芒蘑娄]
臓Tw itch
臓Develop er
臓G ir
臓call back
Ab stract
臓acc ustomed
臓freed oms
臓P G
ur acy
臓l ump
is man
,, ,,
19 92
臓R ED
臓wor m
M atch
臓Pl atinum
I J
臓Own er
Tri via
com pl
臓new born
臓fant as
O wn
臓19 59
臓symp ath
臓ub iqu
臓output s
臓al lev
臓pr ag
K evin
臓fav ors
臓bur ial
臓n urt
so lete
c ache
臓15 6
臓unl ocks
te chn
M aking
臓con quer
ad ic
忙 母
臓el f
臓elect orate
臓Kurd s
臓St ack
臓Sam urai
臓芒 暮魔
臓{ }
臓S aid
臓Fall out
臓kind ness
臓Custom s
臓Bou levard
臓helicop ters
ot ics
臓Ve get
com ment
臓critic ised
臓pol ished
臓Rem ix
臓C ultural
臓rec ons
臓do i
at em
Sc reen
臓bar red
Com ments
臓Gener ally
臓sl ap
7 20
V ari
p ine
臓em pt
臓h ats
臓Play ing
l ab
a verage
form s
臓C otton
臓can s
臓D ON
臓Som alia
C rypt
臓Incre ases
E ver
mod ern
臓sur geon
3 000
臓random ized
================================ ================================
B ern
im pl
臓C OR
臓pro claim
th ouse
臓to es
臓am ple
臓pres erving
臓dis bel
gr and
B esides
臓sil k
臓Pat tern
h m
臓enter prises
臓affidav it
臓Advis ory
臓advert ised
臓Rel igious
se ctions
psy ch
臓Field s
aw ays
臓hasht ag
臓Night mare
臓v ampire
臓fore nsic
rosso ver
n ar
臓n avy
臓vac ant
臓D uel
臓hall way
臓face book
ident ally
臓N RA
臓m att
臓hur ricane
臓Kir by
臓P uzzle
臓sk irt
ou st
du llah
臓anal ogy
in ion
臓tomat oes
臓N V
臓Pe ak
臓Me yer
臓appoint ments
臓m asc
臓al ley
re hend
臓char ities
臓und o
臓dest inations
臓Test ing
"> </
臓dest ined
臓imp lements
臓Har old
RE CT
臓optim ization
臓kilomet res
臓c md
臓impair ment
臓un successful
臓swift ly
臓Glas gow
art en
臓Sh ares
臓An swer
臓Al bum
臓nut ritional
茫磨 母
臓F ut
臓bl oc
臓N FC
臓wholes ale
臓C W
臓neg lected
臓laun cher
臓announce ments
OU LD
com b
臓rot ating
臓rest s
臓T icket
ched el
L ou
臓V ic
臓" '
臓tem plates
臓repl aces
Ar c
:: ::
臓Gil bert
臓illness es
臓sched ules
臓heter osexual
L INE
臓here in
臓co erc
臓decre asing
臓de portation
s udo
臓Ind igenous
臓weigh s
Al ong
' );
臓Beng als
70 7
臓joint s
ver ts
臓14 9
na ire
臓simpl est
臓l ore
10 80
f iction
臓Dat abase
臓reserv ation
臓s ou
臓san ctuary
aud io
ap le
臓veget arian
臓anticip ation
m icro
臓end uring
臓depart ed
臓sidew alk
臓prohib its
臓F ont
臓comp ute
臓S ect
臓15 8
B attle
臓bom ber
臓dist raction
臓end ured
臓practition ers
臓distur bed
臓dr ank
ord ered
臓surpr ises
se at
Sec urity
臓W isdom
og o
臓sub paragraph
臓Pen insula
臓Orig ins
ire n
臓P av
igg le
臓grat itude
臓G ravity
over ty
im an
ct r
臓Ca esar
c ould
g em
臓sk ies
臓ch amp
臓agree ing
F amily
D iv
17 6
臓mess y
um ption
F ederal
ern o
臓Ch at
Bey ond
臓dev ote
臓W alsh
臓dump ed
臓accum ulation
st ad
hib ition
臓sm okers
臓inspect or
F rench
iss an
臓V ita
臓research ing
R AM
臓Celt ics
臓cl oak
臓Ter ra
M ary
so ld
臓D OM
mod s
Int el
臓mult itude
臓Impro ved
臓rel iance
臓artif act
臓alarm ing
P rom
h on
T ION
med ium
臓ref lex
臓Ex cel
臓weaken ed
16 3
2 24
臓cost umes
臓unique ly
臓s orrow
臓m ansion
w p
臓sal v
臓Gro ve
bs p
臓Sn iper
臓Sh ipping
臓P OW
臓und is
臓brand ing
G irl
臓Ah mad
臓L akes
臓Core y
臓inherit ance
ener y
臓pack ing
臓P rest
D est
F W
臓regul ator
l ocked
臓cont ested
臓Mel issa
臓D uc
臓unpop ular
臓st acked
臓19 17
臓year ly
臓st are
臓assess ing
脙 赂
臓be verages
臓compet itions
臓streng thening
al ong
臓L ud
臓mel ted
stan bul
臓b ounty
EN C
臓L ands
臓decl ares
臓custom ize
臓comp osite
茫磨 卢
C M
ograph ics
臓Tem p
臓cont ender
臓ins ign
臓L AN
臓dis asters
ins pired
臓jud gments
ustain able
urs ion
臓var iance
臓Ult imately
臓 --------
u ador
臓R X
臓mel ting
臓Ext ended
臓T we
M ajor
臓B il
臓sy rup
qu ick
臓Hold er
臓innoc ence
U LE
臓M ight
99 99
臓f al
臓continu ity
臓19 53
臓B S
st ill
L at
臓Ab use
臓un supported
xxxx xxxx
臓inst itute
臓frag ment
臓P ep
W estern
臓C ause
臓Fr ag
臓Ar s
脿 楼
ast ics
臓b ishop
臓cross es
臓15 4
臓Up grade
臓mit igate
臓Ray mond
Mod s
臓tom ato
臓st umbled
臓diff ers
In itial
臓R aspberry
臓ign ores
臓t ant
脙 艂
臓rel ay
臓b isexual
臓conf ession
臓d ement
in as
臓He ather
pl atform
dri ving
bour g
臓M ush
臓hy ster
Det ails
臓dr ift
臓W ald
臓Luck ily
or f
臓exp ire
臓P unch
zy me
g old
臓unp aid
臓T rent
臓un armed
臓ill icit
臓T ottenham
臓sm ash
Intern ational
ink er
臓st ing
臓Sadd am
臓AR T
臓truth s
b irth
臓so ber
臓N it
臓 ib
臓us able
臓st acks
臓Sy lv
臓nort heast
臓dom ination
臓M our
EN SE
臓Me asure
臓program mer
臓< -
18 2
臓Cond ition
臓back yard
ir ling
臓J eb
臓Cre ed
臓H ang
臓COM P
F ER
臓Is h
臓detect ives
------------ ---
臓Mess enger
臓lo oph
臓gate way
15 1
臓Material s
臓D T
臓do omed
od o
臓slic es
臓email ed
臓Per l
臓ren ov
UT H
ody nam
臓South west
get ic
臓T PP
臓optim ism
臓T ow
ul ators
prot ected
y les
脗 芦
臓ex ile
en v
P rop
臓Zimmer man
脵 陌
C a
om aly
茫磨 抹
臓rail road
L ee
23 2
臓repl icate
臓comfort ably
act ly
臓r av
臓telesc ope
臓honest y
臓Pe pper
臓Br ing
臓ric hest
臓out doors
臓h alls
臓cont end
IS E
臓sub mitting
臓na ive
ar ations
臓14 3
臓po ised
respons ible
臓soc ks
臓Sk ull
Quest ion
臓discover ies
Jo ined
臓En emies
臓Wire less
臓Re venge
臓puzz les
臓ce ased
29 0
cript ions
臓Con sole
臓bo iling
臓disc rep
臓ded uction
臓ar senal
XX XX
臓Am sterdam
rox imately
臓Sh ane
臓pos ing
臓ACL U
臓Compan ies
臓the ology
臓U g
qu arter
臓H ank
Co in
臓L v
臓alleg ation
臓Av oid
臓indef initely
臓commod ities
臓br ig
臓Man it
臓t enth
met hod
臓Kn icks
臓芒蘑 陌
臓inv oked
D ial
AR A
臓c aucus
22 7
臓J ab
臓oun ces
b ay
臓bud dy
f an
23 4
臓H il
ad h
臓T Y
臓IN D
臓19 39
臓iter ation
臓Gonz alez
臓V ert
臓I O
em b
re ra
en ch
臓Requ irements
臓W ins
臓livest ock
h ours
" 芒蘑娄
b ral
M arg
臓D one
臓was ting
ing ed
g roups
臓w ishing
臓T umblr
臓t apping
臓national ism
臓B yr
臓squ ares
臓Act ions
茫磨 楼
In side
deb ug
臓app end
臓stub born
臓C ind
T ell
臓t earing
臓Re y
or c
臓Day ton
臓N H
臓Mad ness
Ch arl
臓Mor rison
fil ter
臓acc use
臓. /
臓tor rent
臓decl ines
g allery
M ine
臓neg otiation
臓Bash ar
op ia
19 93
em ort
臓No vel
臓F ang
ers ive
臓Inst ant
臓roll er
A round
臓Elect ions
G ames
臓in expensive
臓wor s
臓v ul
臓H ole
臓unbeliev able
臓n ause
臓ent r
bo at
臓ST E
臓bus h
臓Hass an
臓w o
臓pa used
臓M ig
l ived
臓sc out
臓l ith
Pub lished
du ino
c ool
臓circ ulating
id as
臓P am
viol ent
臓Craw ford
udd le
臓Let ters
Gu ard
mor ph
臓wand ering
臓soph omore
臓que er
臓Bl ind
r ue
臓Mar riage
D om
臓padd ing
臓fold ers
臓meaning less
臓candid acy
af ort
臓whistle bl
臓Ident ified
臓cig ar
臓h id
臓Dub ai
臓post ure
臓h iking
臓Termin al
Legend ary
臓T P
臓AT K
臓Star bucks
臓R iot
19 91
臓Bott om
e ffic
臓Eug ene
臓Wy oming
臓Rock y
臓sal mon
臓met ro
臓b ilateral
臓celebr ates
L ength
b illion
B at
臓re leg
臓pse udo
D T
臓Rh ode
P arent
ple tion
臓att ribut
臓tun ing
臓NOT E
臓Re bel
ic us
F und
臓cock tail
臓5 01
臓sp oon
臓brut ality
臓un ite
臓micro bi
臓Re ich
pos itive
臓am azed
臓N T
D esc
ECT ION
臓false ly
臓High lander
臓C rist
臓Victor ian
臓distribut ions
the ir
臓E instein
臓p od
臓epid em
臓he ap
臓R anch
臓an them
臓re app
臓Aub urn
臓conc urrent
臓Through out
臓P OST
芒 暮
臓hom emade
k ick
B eg
臓ch assis
c ounter
臓mer ger
臓l aps
2 17
un ion
臓Tr igger
臓deb ated
臓sil ently
臓rest raint
B al
0000 000
臓form idable
臓Fil ip
臓sacrific es
F ood
臓dwar f
臓Se qu
in ian
More over
臓tang ible
ops is
臓Mine craft
臓Regist ration
o an
臓represent ations
臓th irst
臓cor p
ire ment
M ade
l oe
> "
c ats
* .
臓gest ures
gener al
Le ague
臓pack ets
臓Inspect or
臓Ber g
臓fraud ulent
臓critic ize
F un
臓bl aming
nd ra
臓sl ash
臓E ston
臓propos ing
臓wh ales
臓therap ist
臓sub set
臓le isure
EL D
臓C VE
臓Act ivity
臓cul min
sh op
臓D AY
is cher
臓Admir al
臓Att acks
臓19 58
臓mem oir
臓fold ed
臓sex ist
臓15 3
臓L I
臓read ings
臓embarrass ment
臓Employ ment
w art
ch in
臓contin uation
l ia
Rec ently
臓d uel
臓evac uation
臓Kash mir
臓dis position
臓R ig
臓bol ts
臓ins urers
4 67
M ex
臓ret aliation
臓mis ery
臓unre asonable
r aining
I mm
臓P U
em er
臓gen ital
茫膜 鲁
臓C andy
臓on ions
臓P att
lin er
臓conced ed
臓f a
臓for c
臓H ernandez
臓Ge off
deb ian
臓Te ams
臓c ries
臓home owners
23 7
A BC
臓st itch
臓stat istic
臓head ers
臓Bi ology
臓mot ors
臓G EN
臓L ip
臓h ates
臓he el
S elf
i pl
ED IT
ort ing
臓ann ot
臓Spe ech
old emort
臓J avascript
臓Le Bron
臓foot print
臓f n
臓seiz ures
n as
h ide
臓19 54
臓Be e
臓Decl aration
臓Kat ie
臓reserv ations
N R
f emale
臓satur ated
臓b iblical
臓troll s
Dev ice
ph otos
臓dr ums
茫磨墨茫磨漏 茫膜麓茫磨鲁
N ight
f ighter
臓H ak
ri ber
臓c ush
臓discipl inary
ba um
臓G H
臓Sch midt
ilib rium
臓s ixty
臓Kush ner
ro ts
臓p und
臓R ac
臓spr ings
臓con ve
Bus iness
F all
臓qual ifications
臓vers es
臓narc iss
臓K oh
臓W ow
臓Charl ottesville
ed o
臓interrog ation
臓W ool
36 5
B rian
臓芒木 牡
臓alleg es
ond s
id ation
臓Jack ie
y u
臓l akes
臓worth while
臓cryst als
臓Jud a
臓comp rehend
臓fl ush
臓absor ption
臓O C
臓fright ened
臓Ch ocolate
Mart in
臓bu ys
臓bu cks
臓app ell
臓Champions hips
臓list ener
臓Def ensive
臓c z
ud s
臓M ate
臓re play
臓decor ated
臓s unk
臓V IP
臓An k
臓19 5
aa aa
Nob ody
臓Mil k
臓G ur
臓M k
臓S ara
臓se ating
臓W id
Tr ack
臓employ s
臓gig antic
AP P
茫膜 搂
in ventory
臓tow el
at che
l asting
臓T L
臓lat ency
臓kn e
B er
me aning
臓up held
臓play ground
臓m ant
S ide
臓stere o
臓north west
臓exception ally
臓r ays
臓rec urring
D rive
臓up right
臓ab duct
臓Mar athon
臓good bye
臓al phabet
h p
臓court room
ring ton
ot hing
T ag
臓diplom ats
臓bar bar
臓Aqu a
18 3
33 33
臓mat urity
臓inst ability
臓Ap ache
臓= ==
臓fast ing
臓Gr id
Mod Loader
臓15 2
A bs
臓Oper ating
ett i
臓acqu aint
Don nell
臓K em
臓For ge
臓arm ored
M il
臓philos ophers
in vest
Pl ayers
芒 莫
臓my riad
臓comr ades
R ot
臓remember ing
臓correspond s
臓program mers
臓Lyn n
臓o lig
臓co herent
yn chron
臓Chem ical
臓j ugg
p air
post s
E ye
臓In ner
臓sem ester
ott est
臓Emir ates
ric anes
or ously
m its
臓W is
臓d odge
l ocation
臓f aded
Am azon
臓Pro ceed
臓IN FO
j ournal
臓Tru ck
T en
臓2 17
臓stat utes
m obile
臓T ypes
Rec omm
b uster
pe x
臓leg ends
臓head ache
f aced
臓Wi Fi
if ty
臓H ER
臓circ uits
ER ROR
22 6
ol in
臓cyl inder
osp ace
ik ers
P rem
Qu ant
臓conflic ting
臓slight est
臓for ged
ion age
Step hen
臓K ub
臓Opp ortun
臓He al
臓bl o
臓rul ers
臓h uh
臓submar ine
f y
ass er
臓allow ance
臓Kas ich
臓T as
臓Austral ians
Forge ModLoader
臓芒抹 某
臓Mat rix
am ins
臓12 00
[...]
